memory_initialization_radix=16;
memory_initialization_vector=
04250F0CFB1B03FCEF1503EBFAEB15D408280FE7021D07F718220FECFADD29000DDFF225041A2AE5FE001B25F1FDE74014FBBDF8070AF90813EAF1FB0700E8010CF8FC1B0D0EF4F9FEFDD5FC08FCFDE5F60C042B0F0A0A0F160C0B1006FCDD0A31D0D0CC,
E6F8F8CFFAF309F7FB030C18FF000DF2FB060FF3EE24F0EEDDE1071902E3FDE9F909EEED031AEFF00010020C090FEDF11D00E3EA05FE27380915F1FC0EFC1D01140414EC03270A0C121B19E1FDFE0C0E0FFAF60B1CF708FFD813160FFB1FFB060311EEB4,
00000000000000000000000000000000000000000000000000000000000000000000000000000000000000000AD91BFD1912F4100CEDFAF5020F1E371506110C09E700FFFE03FAEFE6F3ED1419FFF9021A17F70C1B19001C09F9220A01FC1A0CFF061417,
DE190C2E0C23060317180AED11020AF8EA110BF3E9021BFC06EA280614F5040F00D8E7F714DAF611FF0F0A2912FEE420080CEAF800E7FC15FEEC04F2E3FE1100F118EE03FD081B190217F4EBEBF61C10F0E7DE14F8D00812DF050909F3210EFFFCEFF8F1,
F2F108FBE8FEFD37FDECF41117E803240BFBFFEE21E4EE0A12F3162614FAF61D05FCE0F003EC1600100803081710EF151313040302FB051A091201FD1416FAF2ED0BEE03060431FE0EF2160D14181CF31D03E3F00CF3FFD309130309FC37EFFECAFF130C,
0000000000000000000000000000000000000000000000000000000000000000000000000000000000000000F70A1809C4F8230209E5F8061900F60214FBFF0F0A07170417F6FC1603F203EDFBFBDE09E7EBF20E0CF9161913EEFFF1F6F5EE0412FFF7FA,
F1FBFCFD12FE0CEE16F601E6110BEE0EED10EDEC14EEF2161CF2EA1DF8ECED16FA0F10212A04F004FF001500E4F5E7E6E6EC06171106FEFD14F3F4002719F2F7F808E5ED14FD10E61819FFF60D0113EFE700181819F3EDE4E0E7F5FEF5E8EB02D9FD031E,
EF13FB1909F8E6FC18FE06F5F7F20004ED1216E9EEF8DCE7091B0410020A0A111F0D0CF40C1801F1ECEAF7F91307FE052B160AFC161FFE031500F71810E7030001041706060CF00B0F20F609E30C0DFFC9D7E3FE05DBF0E5E9E3EBFD14DAF60606FE190C,
00000000000000000000000000000000000000000000000000000000000000000000000000000000000000001006F4030C12F00DE80706F2E5D5F009FE0901FEF11204EDEB09F005F200EF0DEAEF02EAE00414F9DDF300E707FFEBFC18EB090EED25000E,
04C9C4F62E15FDEA17FEF10A130A0310E8F6EDF5E2201118031001FE2E0118070A0E1AF7121A04F3EADC16CF18F400F11B192012190213D91A0416F8001E0EF7E8EFE909FC1F11F5FAFCF4FB13090FE70B2600050D091207F43106FEFF3D23E4F9281A1E,
2910D8E5000DF0F6FDF92343F3150A0508FB06F4F40CFE0AFA2F2CE6F9070805040AFFE81208D9EE0BFB1BEA12EF0B0BE4EFDDFDFE1DFAE3100FE40201E9FDF6F402F910E8F4ED0B04E6F00BC7DDCBF8FB1920FA0DF8F5FD28F3D9DFE8E607F006E6D81D,
000000000000000000000000000000000000000000000000000000000000000000000000000000000000000035281701C8EFDC18FAFF06F6FC0A1D01ED04FE1911E8EF0BF6F307FC14FDEE1104F6F0E308FCE0E6090905051CFEE8FAF812361C1D0705F5,
241B25DAE72824FEE2121C03EF0129030D0BF6E406FCF601200EE605091FF8F0F801F803E62C2609F6FAEAE3E2BAE20CFA0F15E111FF28DFF5EC18FB09E7EDE20C1D081DDD1301E70B1CE7F7F8FAE1F200F51D06120EF8FFDDEABBE5E1BDFDF1EC0904FA,
15F2D209EA10D6D2FBEE0A2020E8F2DCFC1109EFE40CECFDFE10F109111017F5F8F5DFFF23F5F9FF242510F0F214EEFD0D17FAF40623171705F5FADE0406FF0D0AF3FC150304FCF6DBCFEA0C0EFAEFFF1DE0C6150CEDF4EB2E11D1EF010612FE06372B05,
0000000000000000000000000000000000000000000000000000000000000000000000000000000000000000EB0F07FFC7C9070E11D7F41B170DF5FFF316ED14110C04F2EAF0FAE818EA02EC14F0F6DDE4E7F8F7E6250E161D01F9F40A16F8FB0AFF0EFB,
FCF01BECEE07FAED100A10FAFA0211F80EE9F8FC12F7ECFE11E4EEF80FF120FF14FC1DFEFEFAE8FAEF2A10E808EC0609100CF40DF3F1FBE5FAE222F91019F1E6EE0D0B06E609EE030A10101C1404FEF9EBEF1FFF01030D0E1C1CF40911F4DF131AF9F6FB,
04E216EE0F0DFBE412E917F2F7EFFA2300E705EE141A16FB001AECE1EEE80810EEE400F3E7FBF0EA1F05F2E3F7FFFA14EAFB0CE802031401FCFFFEE8F820F1EDFEFFF019F1FAE7F306000D0AF004E5F10909FCFFF50F0B00080FF4FF1C00FCF31CF71007,
0000000000000000000000000000000000000000000000000000000000000000000000000000000000000000E2F6E3F2EF13DEEB04FEDDF3FBE9261C12FD031A14FC0915F401F9F8FC0EF613FC14F1EDF305FDFCFE180E071D0EF916F3F1EF00140BF4F5,
0C382227FB06FADEDCFA0FF801F615EB0B3314040FF9241124FC003213E5EBFFCFF9DECF11E7F2EF05160E19133904180CEDC1BDFAFC150A320C2718FAE7D4F4CD07E7ECFFF2F8102007F3F70FEFE104E10AF3DEE91B2715DB2AE5030202E2F0F8FEFBC3,
1F080D2207D4DD3EF7FEEEFAF714140F3C33260CFEFAD022EBF318EC0E09F9072EFEDCE5E2E914FC04E3EE02211ED41B07090C17E7F207160F1C100CD2D60F01EFF31903ED212A26020EFB10201104141300F30E0C1604FBFF48F8D3CC04F800ECF927F4,
000000000000000000000000000000000000000000000000000000000000000000000000000000000000000003F71B1DF9F4192AEE02EB0AF5F5F9EBF9160BF80817EE0805FF1110101717E812041027F8F2FB0DD60800F8140AEFE6F7D0F8EEF2140C09,
2604031807FBEEE0DBDCE1FDFFD814E106ED05FFEF0CFF000200DD04FC050B02DCEA11F403171A2AF7E5CDE1FEFFE7D0E5F7F202140DFDE3D018EBF2E205F1E9F400FAF8FB0FEF07FDF5151611281D1018FF13080E1AF20CEAC4B5D7F4FAE7F80DF10A0C,
00FFEEF3E7F21107EBF328231D24F6FAE102DDD3E4EE0714020DFBEF0C14F5FB11E213F71F10F0112002EA1AF7090EF9EC0009E81024FEFD0EF0E9FAFFD90AFFDDFAE601130A1817E4F3F3160206EFFE381C0CF40CF400FC1AFFEDE5F20804E004F023E4,
0000000000000000000000000000000000000000000000000000000000000000000000000000000000000000F91DF5EFE7C7D6FB37300B022308F406EB15F6FEF015FFF702F90AF60AF6FF08F7F8ECE00C0FE7090C2013FE2BF816FDFF072A012F233B25,
ED09F5050E0BEBEAECF30AF019FCEFFC0912F4F0F2E7ED0C0DECE7F6FD02F1F0EDEF12EBF011F105F0F8F3191915EF09FA111216F3ED17FE0CFEFEF4EAEBFDEFFC1811FA19FE04FD0F04F1EE0BEBF11009ECE616EA02F70DF2FB08EF0805FE0FE805FD0B,
F8F318EEE9F2E7F2E60AF409F10B12EB1711F6030FF40B110701FB0BFC0E01F7100219E9FB10170F0006090CE8F306E9F20CFEEA0B0113ECE90FFBF7EE12091413FDF50E13FEEDFFF21612F7FAEA08E70B001904F513E91305ECEB0CE6E813E7F512EEFA,
0000000000000000000000000000000000000000000000000000000000000000000000000000000000000000EF0CF0F01200FF10EEFAEC07FB13EB19F7F918F4FAF7E91018FEEBF8EA06EF130108F1F8EFF70503F517EBF3EB0A0A12E80E191507F8F6FB,
ED07FAFFFEEAF0EA16FEE9E7EB0AE702EE04020CEAFE0B18070201F8FB051200F9F5F9E90F110D100F0612FFFEEDFF00ED18F104E9EFE9EF13130BE9F519120907140F0117F6EA0AFF16F7F60A03FB05E717ED0918F00408171BEAEF0E03FDF8F6F9EBF1,
EAFEE7EF1900FBEDF40EEF0A06110AECEEFDE8F5F607ECFE0AF5F1EF10F415040418000C04EFEE0CEBF9ED131000FA00ECF9FA050E0613FCEAF904F9F313040B03EFEAF710EB00EDF8F60B0503030FFEEAEC07FDFA0BEC08FBF30506FAE91911EBFC1900,
0000000000000000000000000000000000000000000000000000000000000000000000000000000000000000F3F5F9EAEB0CEDFC07EB1902EF14F114F2F4EF06FA18F3FDF21A1302F111FB0E040408ED0AF3F202E703FFEA12F7F7EFFE10FD110AF005EB,
EFEA09E4E208FBFCD9D1E60FF6D7F1E7ECFE12F032DFF5E6ED110CE30C220410F90CE2ECE1B5E3F5D8E3040AD6E3FE12F92E0D2A06FEF304C810E5F8F1F1090D0B0B191A000117E4E72704FF14171F1A0FED0BEFC50AFFF002D0F8080801E513F41024FB,
F5100AFF2510200D3BF4C1F10CFCF901EDF9DCF411142317141EE6FF162003F2131C2311E505FA03182D050806181511EE320ADFE713FEEFE504E60C10FBD3EEEBD8ECECF804070105FEF2D01A14E3FEF8061A1E231E17DE0021191DF1F8EB1FFA20E4E9,
0000000000000000000000000000000000000000000000000000000000000000000000000000000000000000A9B8E3E11F1615DEE4021203130B1C11100DEE0A1A00FA0C10F312E71A160809020A0DCE0928EDE0E50BEA16F00912EE531AB9CB0900F0F2,
D005FDF4F2DDE7EDEAE3F1F31CF6FE090BEE11F006161A24E505ECE5FAFA110512FB05D6160AFDFB26263105FA21FAE3E60CDEF11A01ECFA0E0212F0E9F8F8E6EDDDEAE20E1D27FA26240F12D117ECECD1F4FE0509FF080C121305F4F40709E208EF0208,
36181BF30D16F8E2FF12E2F812251003041C0CE21117F8D116F205F2140409F0F31DFAD4D4DCFE0318F621DC18E4F4F1FAE2E1F1C5EDF6E708FE1AF91101FBFAFEF00D0AE0FC16ED09291312131D2607FAF6FAF70409E5F9EECC131016C3080E1DF41E03,
000000000000000000000000000000000000000000000000000000000000000000000000000000000000000004E6F423212602110CFCF009E1030F0F01EE06E9E9FDF2F6070E17EE12E7090E382BF7F6FE1E14EFFDF1EE14D40AE1FA0DEBEE0C08F9E105,
08120709F715FEF1ED101316E70FF6F104F60503EEF0F804EFFCF00A18E6120AEE0C0CFE16EFF7F21115FC0AF30D1BF50000FF10F316FDF2F7FB03F4EB0EF6FE0CFA1300F81000FEFF110DF1E8FC0B10FFEEF2080C10EF13EBFC0610E8F1EE11170914EF,
12EBF6F4EF07F1E319E80AFDF60104FBF6F4100901FEE6F0E6FE12F5FA0A0BFEFB0BF3E6ECF8FBE9EEFA0AEA1706F70E03FFFF0B0A2003EFFE11FEF304ECF11709F11615FA031A18FAFEF0FE18E9080515EA161304FDEDEBF60821FD100714F10EEDF3FD,
0000000000000000000000000000000000000000000000000000000000000000000000000000000000000000E4F8F9FE0FF00CFE08E60CF4E804EBFFE711EC190312E7150905EEEC0A05F0070BFA10F3EAFBFDFB13E9F4E9160302FCF1EE1803FBFAFB12,
F3FE11F1FE09E9F51AECF8160413EC090EE918F00F18F013F60B05ED1504EAF6EF0915EAF0E501ECE60BFFFEF10EEA0B050AFB1512E80CFD03F2F20CF1EAF40919EF0901FEF91813E7E6FDE8EF1612F215EDF111F2F8F7FBE9FDFD0317F100040D13F401,
F1F0EBF6EB0E04F014E9F1FBF60C13F41007F6EE13EE1712F515E5FBEE08EAFF190A0B0FFAFFEA0C02180C0900EAEDFB16FB14E8E9E9110315E90907EC13EE18FBF1EC0DF812EBEBEEFDFA02E6FFEB0A11EC0A151309E8E8E7FCEF0DEBFBEDE806FBE9E8,
00000000000000000000000000000000000000000000000000000000000000000000000000000000000000000BF60F0DECFE04ECFBFDF9EA030214170310EE061A0B0AF00D15EEFB0B0419F617EDEAF50E09EDE9E5E7E611FBFC03EFE7F60FEB04F6F514,
02E6EAE91503F800EF07ED0BE8E6F20911FFF905FD0EF6EEF7F2FCE7F4FDEB1301E7110D13F6EB051812EBF615040B00EDF6E7F106100AF60CEDEAF4FC0CFDEFF4ECEA110FF50DE800ED021A0D1411F614130A0E080CE7E909EE0702FF00F7F9170F120F,
F5FEE9EDEAFAEBE7EC110901EC051503FD00FBEB0BFEEF070EE9ED0AFF03EDF408ECFF06FFFFFAF5FEF3EBF9EA0FFD1716EBEC0C0D0BFE1405F200F403F8020F18FF10EE1000F4FFE7EC0C04F5140C16EBE7F1FC10FB0BEAFFF2F3F0FAF5F2E7EBFC0B15,
0000000000000000000000000000000000000000000000000000000000000000000000000000000000000000071212E8EDE919ED0EF60F13FF1707F50F13EFFBF5E8010803F917F5FE0EF404EEF8F7F507E817EE0FF20D18070AF502FA08F5F3E704E6F7,
1D10FEFBFE0DF0F8FF101014131908F60806F612F5FDF3F919F504F3EC00F0F30B01E902EE1317EA08F7FB080C1016F4EF030A1DEBFE161B0702FD0D18E80AF6000D18EDF715EF16EEF2E9E8EFEF030BFDEB10E2FE1DFBE4090AE8F8EB071E0F181219F7,
09F7EDE5F0EA03EBE605F2EC051B00040518E6051AFBF50D0E0EEE01E90EEC0E04F50418FF1B19F5F6FFFFF7E9ECE9080EE9050CEAFB0607F00BFA10EF1DEF00EE0F0DFCF5EBF80D10FC0AEFF7F9FB090DF207F401131001F3E3F3EE05EFF1E7F0F415FB,
000000000000000000000000000000000000000000000000000000000000000000000000000000000000000007F7021B0E15000CE5FAF5FA0BF5F7FE051801FCFF0A0204F60EEFF51718FEFA12EAE9EA0AFB19E8EFFD0FE5E904EFF0EE010EF20DFD060B,
13100F1F0203FEEC0918E9F4181D2303F63F0B0D050CF4031413F03F01E3E60126CFCD1405EBEADBFD1EE0121004EDFE4311D4E50D0D05ECFE0C2C0D1707D11DE1F21610020001042118020EF40EE71DDFD4DDEAF512141BFA270B140FF22AE71C13F0CF,
0E1104F8F1E2CBF7EBF223EF1C26081112200309F5080BF7F21AFD1610FDEE120623D1ECFFE50ADC0A020503FEE3E91828F7C82CD6D5F1411027FF0F010AE6F9E8DCF321FB1E1027F3E3F2E51900FF230EF700F8FF0FE90A1028F30E0AE116161CF324E5,
0000000000000000000000000000000000000000000000000000000000000000000000000000000000000000EEEBEDFB0309F524111E000FFC10F7FD14F40D02F205011AFA0F130614F0F4F00CEDF6F427ED0514E2F6F5FFF4E7EA0111F1E5E4F9E0DEFF,
1B30002B1E1F27E507F311D7FB0E152C16200B0C18091902F105E8FDF2FA12EDE81B1831D8E7F5F5E9E7F9FC101A0FEEE9ED03F02403F0E713260A02F41E261E0CF72F08FCF4CEE40404F91EEED4000BF2FA1319FF20DD02EC0829E52A1131E603010329,
12F5FF03BAD909FEFCD5E70D1903EAED07EA0414EDEAF20E27FBD5F0F0FDF31201DC092FE0DB092305E6C9FE1DFF1BEDDD0BFF30DAF204FB17102419FD03061BF7221020E308FF10DDD5CFF928ED0B1309EDE5E306DEF3E93F05EADB5327F9EC170B113E,
0000000000000000000000000000000000000000000000000000000000000000000000000000000000000000DEF2FED4FA0732FC332EEF0ADAF1E7F615FF0E1413EEF7F604EA061106160416ECF61FFB01F0290FE4E4F7F7D8DEEED6C3C4F9E5D6C3DBC3,
0117F1E2F00DFD0C050819FDF2F40816E20622031D0BFAE61300F00716F906F00DF9FBFC17FFEC181F01FD18E4F5000CED02F41518F4070A0AE7EAFDDEE80DFEE3F7FF2CEF06ED121E0D0BEEFFF8EBF30A0B0327F50EF9EDE9F503FAF90A0B04020D1005,
F2E5DDFCECF4F2FBFA1500FC0D0C0A2A14F3F4EDF3ECDE01F0020213EF1108FEF723E903FAFBF7FEEA1BF7E702EDE6F60C1B0AFFE113E51FF52214DFDD1C07FBFF181711EB1AF9E9F10D0DF3120306DA0C0DD3EA15121D1BF91FECDC092707EBEC1AF9D7,
0000000000000000000000000000000000000000000000000000000000000000000000000000000000000000FCE307FAEE1B2100EAF6EC0414FA04000C0D0917E8F5FCF4FC0F171309FAE9110C18F113F209D9E311F51A2E07FA122409FFD8D2260B00EB,
11DE00FAE418F3F30F2A03FF00D8E0C804E7F5F8E9FDFE00EBEA19E70AE6EC1CEFD4DDEB27111AD6131524F70C171A3904D5C1CC0113061F11EE111BFEF401051AE9EFE5F71E0A100D0E12F8F7F205E3F0F40C0A00FF1204291309F01B0CEC37F9CAB9DC,
FE0E2902EBFD2A4DFFE502F72BF0100A1E170B1AE009EE2807032B1FEB13F224EEE2FCDE1405F3EBDC11230106FFF608F6FB0CEDEE0A2B21D6FAE100F21A1503131409E409F921F42D2A2C0E0308010308FD031BF602D10DF4EDC7EAEF15D6F5E114C1CF,
0000000000000000000000000000000000000000000000000000000000000000000000000000000000000000164241030AE116EF04EBEF13EFE1F220F7F10CE6EF05FAF901FCEE0DE7EFF6061B0E16FCF1FBDBFDEB0CF5F3051622FAF61005EEF2DA24F6,
E20723F9FB101BEE13EC20EA010D0B0818EE2A002201ECFD1B15EDEEF4FD141E0B142727E71300E51907DB01141A091211360B1BF41B0F0F0C0AE301FA0D05FF25FF113003DDE1F1FDEEF01A0CFF0C0AEE0B0CFB03FEF3E926F2CC050E0113F11D092AFF,
FDFA0DF61910F0E5E8E6E6E9FA0A24F3F4FAEE0F0F0A23FD1C0401EA090D140CE3FF01FB02FBFB17F3F2DA18F3E2001DF4F6FC18FFF7ED18FFF512F9F5082B2CF2FB05E1E4E4D4FA1FF5E3D32E1B09F5F30CF633EDF2EA15011B251E00F204281600E4FB,
0000000000000000000000000000000000000000000000000000000000000000000000000000000000000000E0DAE1FF2C2804ED13261D17E51CF7E104030705FA0F1612F50C0EF3EA16FD01E4FE48FB02151701130A1E00F701E20624CFC8E6FC1223F5,
0216F80418EED5E61AECDF030106E30403E5E0EFF2111A1313FBF1261A10EE1808E81DFF0D12E6F011E4F900FF040706FE0BF91EEDFD020E160406E527ECF5F622FE050FECF8F9F3FB06F21510FEF4E6F70FF515050D02F4FD09E302F4F6EEEAE4FFF524,
0D0F01000A11210B09FC16E1E4FFEB16EF03FFF0FE1AE0D10A1FFEEDEAEC18140CFDFE18F5FF0714F1FFE41F13F308F829F50A140A06F60B08ECFE05F5E2E11DECF8EE120FF6DE1A09240F0FEFE9FE04F4F6DD0AE0E60423DCEBF10B030FE21EFDF0F000,
0000000000000000000000000000000000000000000000000000000000000000000000000000000000000000260DEE15150DEEFFD6EF0DEF18E0FD130B05130EF802F80312EE0CFBEFEF11FE1B00FCF9E7EFECFBECE3E7FC0EEFF920F7190506FD190CF7,
F704F4F0F40408FFF9EC00E608F20AEEF00CFEE708EAFEF6E9F8ECEA0CEE080902F3FF1807F8F60E18ED05E700F900F5F212E9E6F212080EF3E804F90DFEEB11F8FAE8EA0304F3170B13E6ECE9ECF9EB0609EE0F0701E7FDE80EFDFCFD0DF00311FAF514,
0408F3130E0A1515EAF0EA101405F0120209FE10110514F3F5080114F8FE05F20E0218F5F710FD10E8030600151A03F206EB041402EAE6F10AF9E6F7F118FA08EF05EF17EFEDFFE80EF9FD05E9E718FD06F403F50F0DFA1212FD02E60CF0F1F80FFC0707,
0000000000000000000000000000000000000000000000000000000000000000000000000000000000000000F9F110FDFAF2F612EBEAF2FE0E03FDF20A0717FDF91AFDECF10703FD0FEBFCFD0EEEF2F0FEFD09E7F211E80CF2FEF2081913EDFCEBEDE70A,
C518264012E4F0E4E8DDF115E2F8262AE2F8201CFC0BD9000CF5E9FA362F02EC1541FEE11120021AFBDAF403B4C0FDDEF6041E0EEF2D092BCAD41918ED06F617E0EA1318EEF4F8E800E9EDFD02100A11150D13EB0F04FA18E5D6C700F2AFD7021A1929F5,
06D9F00B1D03F7E72007EFF6F309E80EEF07F0EB2B1FF2E20F12F4D6FEEEEBFFFBFDFFD4EF11141628090D1904D8F40D1A2D0DFA031320052D1B08FA0001FEF5FEDA071BF21CF2F901F50116CA1AFD102CE5CD04211B1EFDE814FBF3F5CDFC1BD1123817,
0000000000000000000000000000000000000000000000000000000000000000000000000000000000000000F10C2DF3C5FBFC2BDADA190E140FFAF8EFFEF30D160508FBF702ECED04F5140D131012201609EAF8F815FE132514FEE51C1EF5011A240E23,
E508161BEB03EEF5D7F213FAE9F0FDF6E7EDF41012F908F4F01BF2FD1F2614F7163E28EC20FB160D1026300E0D05EFEFFDFA110104F115F9F80CF212DEF9F9F1E1E00D0D00ED08F9D400EDE9ED0EEA1C00EBF417F6FB21050E0BF5E6E316E0E405EA00EF,
232B1700F42217EE1A0A02EBFE19F32210EEFE120EE7E2E2F1161208FD0401F7F9012517DCE1111E05E9EAE2E51DEA0109FF10FE01DC0BF7041B070BF9EEEDF1070BF5EBEDDAF1FD2011FBE9F509FC0A1FF9120D1B2119E5F10BFF06F208DBD1D2E1F0F3,
0000000000000000000000000000000000000000000000000000000000000000000000000000000000000000F21302E2F40206F4F9F9F60505E802E5F5E613FEE70AFFE80B1602FE131808EA04080207F90A080B0FF9EF081E201904071ADAEC19EE12FC,
ED0BFFFB0A050C0AF2F011F3F515F7F4060CE8F9EFFD061415ECF1ECEBF1FE09EF16FD070F00F0F1EAF1E5F5F80B09F2F9FB1C110AF319F50DF3ECFEF4FAE804FBEAF9F80CFC11E7F1090F00190DF3ECE6180CF6010FF1FA03EEEFEB1012F31B01EB1401,
E6FD01FDFA08EB01FF1AEAE7F1080E13FE0AFD0516F7F1ECE80813E5EC17F716FB0BEAFBF80B14FAE81AEDEB0514EC0D0710FA00EB17040EF7FDEA0106E9F2060213F8EEF1F3FDF20100F709EF01F3000BE811E91407040E16E6EFF1F801EFF709FA06EB,
0000000000000000000000000000000000000000000000000000000000000000000000000000000000000000EA13EC0DF107EBF2070611F207FD17FF1102160919F6F10910F208E9130B0D0BFA13FEF908FAEF0107F3EA0EFF10F40CEDF7020DF90CE80A,
0A15F3D6241DF0F72F0DEFD227F1DEFC1CE805FDD3F61AEF19FE24F5EB03F404EF0216120812DBD4A5DCFA1D09110927EFF3DF0216E51B0E3A14DD0602001B0722EC0AE3FA08260B0318F700E7F71BFE01FE1824E0EE16010D0D1A08F6380B2BFCDBCE31,
F109FF13C7F122F607201BEA07E514ECEDE310F5D8FDF4FAFD023E1CF81B1E13090D2F0E0BDC0700E6020EF02723ED091616EEFEFBFB0206031ADFF40503FC0D20F81B0726FE16DBD9EF1511E9E0DCF205EAF6E6EEFDDB0513B7F0F33916CCE3FB28C5F1,
00000000000000000000000000000000000000000000000000000000000000000000000000000000000000002D1FE1F3C3E203DDECE607F4FBDE021BF50F17FCFC0DE70E0CF0EAF816F1F8E6EFD7E9FAEC03DA05EFF3FE20EFFF0008EB383AFBC50A1DC8,
04F9EA001D48FBFA0FF8ECFAF2041EF9F4FF1720100F0D1413F8001E02060A101CF80C011604FAEBE10B250DF9D1E80D0410253709CA0C1D24F8FAE9152203DE1BF908FB0A09E3110B20240BEC01E9111E02E3E2F52834F9F80FFC210D2B031CF801270E,
F4E6D2EB0DF01F12EE0A1000E4FBF71AE7E107E3EC090C08E6E8FF0EFFF1E8E219F11F1204F0E7E9FADE192418EFFCEFFE091EEA1113E7E2F4F8CFF40008F9EDF8F0EFF7EB0100EEEA04000800D9F9FBF4D4FFFBF8F0FF020BD5C913FFFABBFC0FF5FCE5,
0000000000000000000000000000000000000000000000000000000000000000000000000000000000000000F11508F30A23FB00DADF03131201FBF512F6120B18F910EFE71AF315F6FDE9FB09E8D606FFF206E7060B070B070505FFE00B2512F2E11211,
E70CEBE6181C15F712082B18F200000CF4DEE21904E8DFECEC0C14DEF21AF7EAD1F819140A19F7CA0FD503C1E2D91C18E4FD020A05E6FF0EED0DF004FB1806160219EE16F0111409D6F304EAF114FDD6EAF0131C1B08DAC9FAE40AED01E01218D1C61308,
E9F7FCE4FBF2F6F2121810F8E6D0EB0A0F1CF1FF18F5F416F6223520F8E9F116F804040E00F7F51603F51E10DCFF0EF6FD1106FDFF1AFFEB092B23FCEE240FEEF4110CE1F8F2F4EA1917E4E317E9EE02E205F2EB01E4EF18072B27181FFA3317F909FBE3,
0000000000000000000000000000000000000000000000000000000000000000000000000000000000000000FD010408F2F3E202D9E7FBEB03ED172DF511F5FB110310F70D0CF70A070219040E04F8FF0303FCF4E2090DF9F50B1B1F182F1B09F4F6F5DE,
F8F616F805F6F1EEDDF5021EE2E4FAFBECE70B11F9F4F6EDE505F5F6F51400F70F4835F50C0D1636F9E319FD00DD0FE6DEE11327F81C0506010F001EDBE7FAF4D0070919F11AFA000501F8E616FFF1091909FAEAF4042AF9E500F4E7FBDCDFDFE5FE3331,
3227FDEC211632E208ED0BFBF3EBDA200513EE0718EBDE08F503DDF103F214FFFDFA23060B080019EE03E3071112FC12EDF4211CDE0BE6F61B06F003FADC12EF010900F805EBE90D0518010FD4FAFEED1416F4E7FB3233EB0E010DC102D50CE5D4FB1715,
0000000000000000000000000000000000000000000000000000000000000000000000000000000000000000011805E900F213F8F6E205F9F70FF4D5EAEDF20C02ECEFE707FE1A000BF206EDE60BFAF902FD25FAEE0A0A0A21F0F21508F2EA0A1724EBEE,
E9FB120EECF0F8F401F7F61DE1F91A07E82322242804F4F615121B0403FBE1FB100C111114EBFC1C24D608F90E0FF200FC090CF903190010C9D8F8F6F706FC26E6E5173CF1090D04060EF5F4F612F318F7DBDED8180710FEE0F5FCFAF4F21EE523222BF1,
07E900F917FBF8CD201AF8F5F7F504320DE1F50518E91A0BF0FF16FA11E3F5F3F1FBF205FD0208F72EFFFD1301E5F2DDEF06F90CF8DAF00109EE170AED1A0409EE0F0F0BE0F7ED061A28120B240503FB262729F42302F81DDC07351EFEC40EEA26E81FD3,
000000000000000000000000000000000000000000000000000000000000000000000000000000000000000006CC02F60D321E0F190C2EFC1A0607100AF6000202F118E71AF0FEEE0BF4EFF9FE0D031315FA0B02EF06F900E3EDE91B2106EB0B2CF0F614,
13F2F7B81AF50AF215F5FAE2FD130C0BF9EDF3F110F816F6041104E6E406F3F2F2F4F715FB18050AFC2F07E7F6D5FE06D1E6FF1C14F4FFF21F1705FC1A0F0A031E20FD06170C0AF5EF0B27110AE51DF5F9143301201BF00B0D1D1B070D1C06E5D30BFD05,
F30DF7DF1B2817FFF30E031E06F509F9EE0817081D0914F00A1222F20EFD22E3EEEB010CF3E5FCE9E201E01211DF0023E8F309F81F1714D017E6F6080B0EFCECF51AF8EEEFF7E6E6FD150F07FC0B150ED8F0F101C3F8EE1D05E4F8150AFD0DE40103DA08,
00000000000000000000000000000000000000000000000000000000000000000000000000000000000000001B2114FB2113000C08F2F107D5FC011F0411EB111509EEFDFEF70B0AF20E0EF5FB1416EF09EE20E9E00E07F60BFB0804F709EE02DFFBE704,
E00E280BFD190E150C0A1E0916FBFA02EBD9ED1701E0EFDB1F08DAF3E407FB1FEEE1EBF300E904ECF5E8C8D6FA02C8D5E6D8E8150F18EDF1FD1D0A0C040C10190FF502FE0AFD1301FB2A040013EE0814E9E10712F60DDEEEFAFEFFDFFDE90502DED6F016,
10E5F4F10D0FFD00EAFB02F0FC08D5F20AFF07F20C1AFCF3E9FEE4EF0DFB11EB0A0814F3F61311051DE8010FF917FB17FE0D2607E7F63B18FC14120C0EFA08F8EA08F302051328221CF6F0E8F9170507F9F50805E8FAF70C0B0B16FB251E0C0DE01D300A,
00000000000000000000000000000000000000000000000000000000000000000000000000000000000000000320F6E0F3FDFDFD15F313FE00CCF8060E11EAF90C16E815F703F9FE020100F122080EE5EB13011307F2F00CF3EFF6FCFBF3E6FA0FDAF8F5,
0B00E8050214F20FFDFD0BE71815ED140704EFF3060CF918E6110BFBF40F0119FE0318FE0FFD0AEEF5150A0FF6E9090BE5FF00FF051600EAE8E4FB080C17F909FDF50817F6EF010B0514E6EFE8FB0AEA061914E6E5F6F6EC0EF105E507F80718EB1DF4F9,
03E7E5E5FF10F4FCF909E711EE0F0719F015F50A140202FCF5F80302F0F9EEECECE70809F3F3F119FFFFEEF10412EFF918F30F06F9E7F8F7EFE81BFEFB09FC0718EB190E09F5F5FDF1E7E8E804FCE6EC02FB060C030CECEA1308FBF9F0ECFE04EC150103,
00000000000000000000000000000000000000000000000000000000000000000000000000000000000000000CFCF8FFE801170318F0F30DEAE70BEE17F11A080102F214EA0917F500E7140BED0E01FA180600EF0B05EC13EF01F2140A0005E8EE0CFC13,
19FDF1C6103724FB2411FCD6FD0704EC140310E4EC1E29E913002B00101010EA021E2A100BDF04E70113320D0217FDFA0B0C010BF9ECE2E11A03FFEBF71117E92403F513FBF711E0F2063305F3FD0424071919FFFAE21914370E1324101D050400FE0506,
1F251604FD1611EC00DE1C2D0E13161BFF032202DFF8E713EFE6071C0B201EE9E4FA0707FFDEDF13F5FCE80F180E23ED03DFFB1F21FBF6C7F7E3EC0CF9FFE5D8062AEAF3F5EAF4D909F7E40EF100E91903F5EA00F509EBFF2EECC9191422FCC505E9D2FC,
0000000000000000000000000000000000000000000000000000000000000000000000000000000000000000072DE200F2FCDF0126F6011AF3ED161719FDE7F20D0007EBEB02FBF8EDF20003EEE802D6E704E821F2F2FE0206140901D7FEFB2AEBF802D7,
ED0FF514F00A07F1EF19E8FB19F8EEF4E800E917F3F3FE0C00E9090B110711ECF3EAE7F2EB000602060B0A0BF517F8E91405E509E9F310E9EEFBF1EAF51C18050318F1EB0FFAFC14E8E71601ED020802EE060F050205F6EB19F603EE18FFE9FD0014F5E4,
EBECF5F60D15F3FEF60910EEF9FAECF4F6EF010AF3E90DF7F01CFE130612040FFF03FE1A0C0B00F30608EA16F513170008EBFC080AEC190C121407E5FFF7FDE806EDEEF012EEEF0EEA03F6F604FF0FF0EE10EF0014F50FE5FAE301ED1C0109F8171B0110,
000000000000000000000000000000000000000000000000000000000000000000000000000000000000000013E5FC16F606051CE40D13FBF2EDE7F103071903F20EF6F2FC1913F115FA0319EDF1FF02F8E702E6F3FC13FBF30D0419FE0615EAE80E03FF,
2AED03FC0B002BF71F2B0AFC2402F4FB07F7F0D5E4F60422090CDD16080112FB1CFD030AD805ECFAC6E0F0081A1542F92905210B2D20FE0E1D1CED300C12EDCFFB0DE2DCF8F4F00E23FBDCF10BDFC9D9F823E209D1FB1D03F8F7D5EC032C0EF7090C3915,
2EF1E02816273709CFDF0D0DFA0C25EC3B340DFD1D140AFD1ADE0606F30E08FC15E5DADE08E2E7E0EFEDF7FD2605FF2C07270700F511E0EA0CF3F6FBF0C4F4FCEA0B32161C07F114D1C8E61EE5BCE10D070CD00736030F173817EEBC0F22092AEE052F1F,
0000000000000000000000000000000000000000000000000000000000000000000000000000000000000000E933191ACCC8FC16DCE5ECEE0F1A091EEBFEF40DEC03FFE9E9F0090B15EE0C0BED020C3011EAF01B220F1BF815191721C9C51E12EDF1F328,
E42113100B02200D1B010C011E180FF3F806FA00120FE707FC10D400FB01F90205D907F7F4FDFDEBFB11050F21FCF4F9FCCBDDE6131801FF22F604081D1FDFFDF2ECFF211414EA1F0A0BFCE8F50F08DAE3D309040505EEE7EBEED6F216F22109F80D060A,
0FE7EDEC1406E0BB01F3F6F9FFFA2A00111FE7F91820E5CE1718060012EE090D1EFED8EA10E3EFFDFAFCEEF20CFEF31C1AEFDCE909E11625171FEE0007ECE81BFD0C190A0905200B1C1605F013F50CFBE7D7E2FB0ED903F3F60F150C12F6000CECE80E09,
00000000000000000000000000000000000000000000000000000000000000000000000000000000000000001C17FB082B0E0811FB06FFE0ED00ECECFA150D120C000BF0EDEF18F9FC18EE11220A09FB020EE3FCDC0401E109FB07F410DB0705F2F2EE0E,
2BF3FFD4ECDC17151C05F7F420FAF7FC08E3D8D6DD05EE071209E8FBF50F1B0FF1E702E7F8FB0D13120C351222070014DCDCEA0A0A18DDE50510F11AF8201EFD21FAFDD506FE10FC0F120604E8F7FFF7F6042B2B0EE60306FBFD0A12F5FFE9F70104E9EC,
032720F91824EEF7FF000CFCF3F31611EF1022F60603211BF7EE15D4F2031BD7050EFB020DED0605EDF70AD4F9D800F6F115F7FD13111AFE0B0A1A06F40AE5FEFB1AD4F318FDECEAEF0D0E0123321EEFF7FEE4FECC01ED2803F81EED04F206FB18E2E1FA,
000000000000000000000000000000000000000000000000000000000000000000000000000000000000000021170009F908F1091BFCFCE1D3E10B1F1808F8FAEC0B18F20910FF03F116EE0F1B0CFDFD07221905F8EE14EDF509000F0BFDEF0AF9EB060A,
D8F7F10C2439EEEFE523F31DE7FEEB08D70D360FEA1AF109F7F9FDFE0AF90A00290FEDED111AF1C1DCEAFF1EEA0321141D1D031713E5171405E2FF03090D06FCEBE2EC18E4EEF8211411F10A0CF9FD0615F8EBCA0A1216E5DFF7070AD824120610111C2B,
0FEAEFF734381E0C10FE0800E0E00FF813F116EB1BEAFDF104F00114EB141310FD230BFB120DF3E0EDED2BF6F00CF7022B1107F9F718F3E5011BE4E90101E0FFEE02140CECF9EEF3DE030E0AE3DEFE1D1DFBDCEB2A272BDE21CFF9FD26EFEBF0E2FC1F19,
0000000000000000000000000000000000000000000000000000000000000000000000000000000000000000F11BF00BCEEC04FFE5E7FA16FD021BFB000BFF1A100107FDE8050D07000603FC08FA09F618E70903F808FD04292C0401001507FDE0F5E1F1,
02F3F40017F2EB07FE14F3FD050D02FAE9F306EB1103FD0FF2F80603F310F118F7EDFAE8F7E713F4EE0CFEE70E140A0AFC00EDE814FC000616F7101519FBF9F5090210F1180D1300FF04EB160AF00AF317F7F804131206FD09EA0211F4F4E610E8F9FBF6,
10E7F9EEF4FFEDFAE9F70A11E8060EF6081202120EFFF1F2E718E6EB0B11ED0CF6E9EFFC12FF0C0DF3E6EA14F7E8EBE8EBF5FA0708F703F6F90F03E9ED0BFB070FF1FC15040BF7FA04F0FDF5EAF8020AE7F2F9E7F10009F9ED0CFFF50AEF0800FFEFEAF8,
0000000000000000000000000000000000000000000000000000000000000000000000000000000000000000FEF5080DF5FD0712F7EC01EC0E18F30CEF16F6F7EB160F06FF050300F20B06FFEF1319FA180710F2EE11EA0B14E90DF6101910181614E90C,
E513F5EAFE060EEDE909E9F802FCEEEF070B17F1F7EDFA19E901F9001608F00C0CF809F9FF03FB16EFEB0211FB06030801EC10F1EFFAF20F16FDEE14FD050A0F0CF8E9E60208F2F8140EEA17EFF90B09E712E917FD16F10A00EA15F7EDF3EDF0F8EF1312,
1716EAEB10F214F30EF6FE16F304160D1408131101FCFDEB08E9EFEBFBEE10EA0B08F0F8EA13E9E9F610FA0C10E701F115060B130112E7EAEEF0FD150AFB040B11F8F004FB02060811EDF70B090BEC0FE90D0AF505FD16E6E7FB02EA0816F3F90AE7F5FD,
0000000000000000000000000000000000000000000000000000000000000000000000000000000000000000E8F7F4FCE9FFECF90FFBEEF802F3FCF102FD07FF0BF20A180406E6ED03FA1AE9F5EC05FEF1F6EE09E508090E08FD0312F917FD16F4E7F4FF,
42412125FA061F0120180AF20623170E14FAFA1917EA2A060204E5E6EF130AF4DFE1FF0F2709404FFAFD16F7F2F90CE0FDB3CECA10FEBDD5181A2216FF0728EE10FE14E11703EE1102F61A06E3FE0B08F9F316011AFE232FF320F912021918DCDEC6E508,
FE08F4F5C6DC051A060B0916F52EF7EA01F5090D08F200EB1309E1FDF0F8F0E615F82015E20B281B02FCDFF839F912FF070A15F0D3F3041402171C011DFCF10A0808FD2B0D200112F3080715E8FA1908EBEBFEDAD7B4DDE81105D3022127E9E51EF22B35,
00000000000000000000000000000000000000000000000000000000000000000000000000000000000000001C2025EEF00BEAEC041FF300EFD9E804FA0101F903FCEA01E50E180F11F3F0FE060CF8EE131A2511EBFEE8CDE8E8DD03FDDE1417EC05FA30,
13EEE3C20DD1F5DDF9E213FC12FF04FA06FB04F3110BE90BF705EFEFDBF91B22EA15FFFBDE3C0BD9100403E2EC153115D7151616EDF9FCD7C8F8D6FAF4E1F2EF40100E05F60105F5E61017F30CDAEAD01CF516011328C8F412FDFCDB291D260CD3032315,
E4E1F1D2032C1F09F115E9ECF2F90ED8F2050B14F7042C32F023E4EFE3EF140BF2E631E30EFF0D080812FD0ADB0FD00FBADAF5D62B28FBD5EE1219F8021714180712F20E0FECD1DDF908FB1D002812F2FA130803C4D8F417E6ED0025E0ED062632F0D5E6,
000000000000000000000000000000000000000000000000000000000000000000000000000000000000000000EBE8F4510713EB043003E8DE0FFDFDFB0409F6070BECFD02F00E1AF3130605EF27010203312A0DEB03F3DA0FF2E6E92F211418F3F513FF,
EFF7EAF9170BF2F3F30CE9E10211F90BFBE00C0906F50E0901E7040804F7171CF3F505151A101105032320F703FC11EA140C120BFF07EFEFFBF6FFE512F9060EF7F6F7DB01FC02F1EEFB161B1CF3EAF50A04FDD920FE0CF9FEF4EBEA03E81A04FB0EECFB,
0320FDFA1D20F8EC111A0BF0F62514E8100AECDD1D1610E4FDE9F3FAF0E60E0101EAE6140A0CE1FEE8EEE802000828F827010E0808F2ECE808ED05FAF2EDE709180513EFFB11FF0D081D0910FBF8F50FEF06F118F714F7E8D8DFD5F1F2F1F3040F170805,
000000000000000000000000000000000000000000000000000000000000000000000000000000000000000009EE0C1A201805F9F8F3120E100E0A14EC19F506F8F10BECEA141A030F0CF9F7161118F909F7E8E7E90EF8ED1410EE01FCE2F208FF08E6EE,
F7EE01F400F004F90EECF2FB07E6080DFA1202F1E712FC19F11417EFF3EF02EFE60EECEAEA0C09FDEF0BF1F418FF00F1EB0D0BF0FF160AFFFD09F1FF0B160019EEF5150F0AF1E8000111FF13FBE917F70C180B1815FC0B01EAFC02170BF1EFE8EF0A11E6,
E9F1E9F609F900F0E7F7E6F408F9EAE8060BFAF6170AFAE615E7EBECF9080B01E819EAE713E8100801EC10E7E917FBF116F3F8030704100A1016020DE702E7EE0EF3081303FAE9FB050E1319F6FBF7010A00E8EB0D14FFFAEDE306EDE7120DF1FAF7E6FB,
0000000000000000000000000000000000000000000000000000000000000000000000000000000000000000F8FAE6F5ED000D141802EFFF16080E0201040EFE16EDEFF306EA01EB170BFD17020AEFF300110B1A00011211F205FEE607FF0E03FB1618F6,
060EFC011CE3011AFDFAF0181E04EDEB12F80EEA2719FAFBEDEC0D0FF402FC1706F41A10FC001918EBFBF60D1205FFE4EFE6F4EEF1F231210C030AF2030EED0618F1130115F4F21A1B0DE6FA1BE5F1DF1705FDFEF918F821EFFAD6F604E8EAEA09F32116,
23FA151A0610E5FDEBE5F30B120F0E091C00ECFA092213F20F02FFD62201EDFB0AF2E4F000E5E6F1EEFFF9EEFCE917200A14EBD9FBF10D21F1FF142609E1070B110514FC05F3ED15150B0B08F0FCFFFAECECEC21FE061E14F221452F0EFC1D2EED121211,
0000000000000000000000000000000000000000000000000000000000000000000000000000000000000000F7F9FC282310FAE8F2E6EFF404F1150EF918ECED01161113F1F70CF2FD0EFDE81A17311613EDF3E7F9DDFBE7F71A071AE1D402FB1D001A34,
10F3E908ECF20B13E8F60800E7FA0BEC022010EB1CF7ECD5150E1108F5E60A0F130FFBF206DF05E8DEF21F3AC0F10A0811FD0E2B10011601DAEC22E9F7170AE41E30F5F90A04F9FF0C101C03F803001FF0F70B0ED61404EA00111C09E7DFF1F5151AF4F5,
D8E4F20BE4F6E1E6090806040BF7F81707F805F3FE06FCF4FD02FEFAF4F200E4232D09FAFEF701FA19F401F90817EBDC0F1C08F814F004F90E1FF3132521E00909F6F4EB1C0214030DF3EBE811131E0A00DC04162E252D19011101051603D70747041AE6,
0000000000000000000000000000000000000000000000000000000000000000000000000000000000000000C4D2FCD5F6300A0806D6F929F20237040BFAF5ED020812F8050DEC0319F80AF003EC00E221E1D60718F8F0091B270F082E1DF4F50FEC0F18,
06F018EC08F710E916070200FE1B13060A072BFC0907EFDE26FAFF0D1012EB010600F914FBD6E11314F4EC0E310AF0F11715121CFFFE01E5FB151D03FFF7172204DD0CF71BD6F4EF0DF52B160DF4041504EDFAE2FBF6F9EAFE370A0A2A12151517FC0318,
E2240BED1110F01B1B04FDF616D7FEF000030A1AF6030CFF122322FBFBFCDC06FA121B23EFDBFD1B0B1CE90EE60BD815E4E30A17ECE1100C13ED0C04FD06121109FFE0E7F9FAE81AF6F500E4242B1D0E13F1F019121003E61337FF28EC07C6F4F101E9F3,
0000000000000000000000000000000000000000000000000000000000000000000000000000000000000000FEE5E2D62F0D08024303F83AF4FFF8EA0413EAFB06EE0F05FEF1061406EC1000D9E0F9E80A07200AE7EB0315F4D5DFFE0801E80738ED02DD,
F9F0EEEB0332EA1B08EB120BF800F50EEDFF1F26F5F60401E9F935FC0E2ADCDB1D3910EB31EDF816011BF010D6DA00FCCFF5210805E6ED1EDFD304E7F1ED170500EE101BF71305F1CEF72D0D1D1A1F20162200F4FCEE261FF324261002020419E8130823,
F4FC0104FF13F6FD07220B1512FDF827D4EAEF0801E504140EE10B20FFFFF2181001252213FA031C01D92610DAE51DF10805170816F9EBD8F8FCE60A1C0FFFF3FCDFD7F904EBE208FBFE19F4E60EFDFE0407F9F5F4FF0EF8CAED29FCFBD5EEF4F504EF02,
0000000000000000000000000000000000000000000000000000000000000000000000000000000000000000110BF607FD39E4E7FDECEE0AE2F0F7F2F81208E702EAFC030513ECF6EFE913F0FD0DD6EBF10A01F60B1403ECDEF80D00105222FD09EDFEF5,
E81AE104EEE9F70CEC07E5F2F5F8F00F190EEBFB09040D0716F52723E9FD0100E70010FA0214E81DE4ED19E82321211005F304E101F6E2EEF8F812F6F0081CF9F216F0E7F017DFEAF710F616F6E618160AFF0A01F1E40605FE19141A09FA0329EDDBF5E5,
F70BE4130700070D081206FEEB17EBE7F50D01FAFC1018FC06F1FAF3F711E7F51F0304EB03E2F10411F2FFF3E50808F9F40AF6F5F7E80FF80EEB1DF70201F3E61800060010F708F10BFAF9120DFF13F3130DFC24E9FB0CF0010BEF0B13F7DE1204F8F7F9,
000000000000000000000000000000000000000000000000000000000000000000000000000000000000000003E31200F9EBE9E2F0061B0F1B0DE6F009F0FC021609F2EC0F050218110AE8120DECFB1818F21F2700FDFFE106100E020E0CF4E816EB150B,
E317F31C02111C20F30F1E2208ED132803F1082AFBFAFDE30EECF7E8060BEEE3EC0F0515261A17EC28EBF3C6F9D6EEE4F70C0518F5EE0300E614FD08F6EC1602E2F6F30FFDFD0403DBF6F5E71603EDFBF6F9FF0BFB03EBE8FD03E71F070A2023E7DBF709,
0D1D02D4061900F11DF913F7130BF3F319ECEBFF00FBDE15F9ECF2FDF31A0310F30D1E1002110FF7F00A22F9F1FF02E9E0F80FFCF50FF4E1170E170E151B0FEEFA0203FBF017EBFE250B05E7160BFFEC05FF0413010AEB0EE4FF0AF5F60607E4D908F70B,
0000000000000000000000000000000000000000000000000000000000000000000000000000000000000000F80021EDFEE9F2DCDCDA06E6E813FDF704EEF005F1EBF20D16190EF4061909111DFBF1EBEA0E0416F206EFF70701FFFE0D1E1615FFF6F3F3,
E4D6111718F2FBEAFADF01F201F502FFF5F1EB1EFC320E05050EEC18ED052402DAE618FB000DE10713392E1B143D0B1527F6EDEF09F9F12303FA20E30AF6F8EBC2CEF6E228F9F3E7E6F6EFF8F9071101F4E3F5EFF51B09FCDA2800EDE808F60019FAEAC9,
1A3818F9F511190604EAE113153611E3290E0E0018EC03FFF300D605FB14F51CF3070CFAFFEA1B140DF0E7FE1C180107E91930EDD0E23638E8FB14F2FB0000EEEEEB10F7F8052C09EB18031B0FFD02080A0C06EA112328E4EFEFE2DBDBDFEE0CC7C625F1,
000000000000000000000000000000000000000000000000000000000000000000000000000000000000000012E7F1EFEB3E2920FC1CFE192F1CE8EDFF0710FA10030900180D0EF3FF0A0CFC030C341C052325FC0BF20F1304E4EF0BF5FCE7091DFF0CFA,
DAD6F7F20023E3F9F2DCDA02B5E71902D6141B05070E0EE91E132EF71106E0021538280A14E0E80E14171206080A09F7192DF00BF4E0ECE9C700F300BDE20225E0E6142E05D4E303D6EF2F1009F4085A24ECF0EF2DF608FA0B1D232E2037F41604260B1D,
1C081FEFE71AF91D2D00180126F9F22DF7DE1102FEFC140BF3122123ECEFEFF8E0FD1320FEE2F41EFC0C110AD8FA130FDAD72A3413EBEBEDEAF5FEFEE80FFEE0F826D2D6ECEEC4F2F6F0F2D1070F28FD223B17E8381513E0F2D21829DE0ACACECA10DBF8,
0000000000000000000000000000000000000000000000000000000000000000000000000000000000000000FE0EECD7D10703D5483BFEFF22F2C7CA0FF7E9EBF218ECEEF715120118F80013EBD305CE15181BFEFC1120EBE8F71911192BEB0E2F3A22E0,
0E16212EF30A141B0BDDFB061DFA0524EF16360B0F171F04FEE42017FF12FD22F608F2E5E0F3F4ECED1A0413F816ED0616140207E3F00D1F0F0803FD0A14070D0604E512F0D9D10BF7E40AFE0E201108F41100DDCE1B0DE3F906092B170D16FB00FBEE16,
C8E0F4071F14E7E40BECE9E3FDF70E170FF5F3190509FD11F0D3D7370F010E101B1DF0350EF1EEFEF1FAD4F61424320B11F81E3A2510EFFEFD0608E208FC0B0BF6F5FFE302FD0719E8F4DDF220FA04F7FEEAECF50C0A0FEB1E2DFA120229F30CE81D2D37,
0000000000000000000000000000000000000000000000000000000000000000000000000000000000000000CC0625EEEEF122D712E8D8040813D7DEE713EDEDF619E815FAF9FB09141503FBE8EB0600EDD3F60A15030221ECDAF1F1C7D5C3F5CF110FEB,
0C0FFC00E11204010FF3E5EFEE190AF51A2A1103200616FAFF3F0AFFFBD706DD070C0FF6F6FFE91D0AF80E3C131FEF1103F5D9E4ECEF12FAEDF41BF200E7F9F5E1E30009F3F7F00926FE0EECEF12FE450C08021A090309270FFB2C08000CE7E80F080AFC,
120B120014FEF916EF0C06F422EA1015FDE81003DAF3E9E70AF105FFF116090DF31605010FE2FE0203160D0CF4EF0FEB00FB29E9E6C10CEA09E4FB041401FBE9F21FF2EC1AFA19FF230EFD0D0A2D2A0D0BF405F91CEFE310090A05021A15FFDB2AFFF2D9,
00000000000000000000000000000000000000000000000000000000000000000000000000000000000000000ADADA1408EF0B0D0C310E16EFCAE4EEEC10000FF203060A04E8EE05FAFDF00D05E9EC0112F93403F4F8E2FD1908F706FC1102201D1509F6,
FD08F8F9EE09F11B08DE16FFFEFC0903E209030AE8EBFEF505EE18EC1118F106070D0FE91CE109141D030F0E000BFAE6E9F6FBF0EEF7DFE80BEC100EEAFF261C09F41517F5E51103F40201F10C031C1F17F2160D1AE70C0D14051CF7190FF4F5E8DC0FF3,
F50A0B0EF31CEC120624E908040FE01C0F06F011FBF3F8FAF1F7FC1E0C1206FD0C012923F505F0FAE9E809E91911F70B11E41107F70FFCDCED0DF2FE08F4F20DF80BE00BEFE7E004200D05ED1B2422FFEFF4F6FEF416FAFFEEFFF413F820F4FAE8F41C08,
0000000000000000000000000000000000000000000000000000000000000000000000000000000000000000F21313FD1012FFF3EAE801F90210F6F9EA0103E6130E0F0DE7ED160E13F2F7F3F1F0E9FBFAF1070303EBF5EAFFF0FEFF0C0BF900F605F9FB,
F116211003EFE90E15131D0316101A0A1705E30CF31621F5E3FC1CEEF6F52305E706DCD8F22101ED03041503D8FFEE06CCD1EE09F6FA0222F4FCF2050AFFF8072403ECF3E922F51FE2F8032000F610E60BF10EFFF00607FE151607F4EAFAFA0FC5DDFEF7,
DEFC32FCF4FA0EF9E20B0CF8CD0010F1DDF1050AFAF910FB110410FDFFF70F05F9E4FAF0FCED15ECE00D0A07DEE4151120FF010BED000FE402E90C1AF90E0D041500F7F215ED0D1DF80FFB0607FC01E4D6DEE005EDE7E3DDF8F6FBFE21D6111B1F0F192F,
0000000000000000000000000000000000000000000000000000000000000000000000000000000000000000F51DF2151D2A18FBD0E9F2E8E9E4E2F4030CF4190AEA140C05F8F3F80D18EBE701F4270AECDFF00F0CF6DDD1F9F8EE041A07261DE405141E,
1109E607FDEE17E9F50600F212FC0D04FD0D0E12010EFCEFF00BE815F10FEC16FC01E309030CF7E50DEB1AF614F0EFFAEA11FE14EFEC0EE7F2F5E7F9EC0CE90AEDEEF4F0FE03FB12F7F8F4170EEDF51402F407EFF2EEF7F01A01F60515EFE5E5EA0E0DFD,
02F618F20CF5FB17EB010CF30CF812FA0E151102F01801EE08F5F7F70FEBEBF9F7EAF9FEFB0014EDEB11EC070A1114E8FAEE03EC13FFF41CEE12EEEB100DFDFB0407EB161905FD0117120419F31BF0F7E9F7F0EE0506EE07F80D191A0A040801E8E71505,
0000000000000000000000000000000000000000000000000000000000000000000000000000000000000000FF110913EB1BE9F40700E60E14E603EC0DF00A0BF71506F501EFE9FEFDEE1AF2F214FEE80306FC18E8EE0FFA06F719F6EC0EF5F8FF0AEFE6,
54140F42242D0AE8052411EE10F11A152F2106DAF4E4200B2C031221F4EFEA2BD3CAF0F4FAEEE928F90C2A0E2132EDF2F001EFFEF1F3D6FC481417EBF52022FDF4E50AD4F9D4E01427F9FF0FE7F4E71EEE14F62300F113210D2320030C3E0C011C0FBA1A,
0905FF13D0000012F2E1252D2026F91C041B09EEFCEEE007E9DAE9241C1A05D80D230D2AE8DAF6EDFAD3FE063109D9ED08EA052AFCE007F800FCE6E8FFF9F3FD13FE14FCF71D221BF5EE0E0802F7E7192406DDECF4D5E8EF3D04D606FA5BCDE006CDF110,
00000000000000000000000000000000000000000000000000000000000000000000000000000000000000002EF9171AEAE607DD3B1ED412E0EA01EC111111F90DFB0906F1EFEEF0F605EAEDF7E9FAED04D92009F0E816F800CDEFF3E0D60CFBFDE714F9,
0512111C02FCF5EEDDFC230A0203FF1107F614E8F7E1EEFFE621F106DCE60D1405DFCF00E909F30B0CFB0FC3F4311301F3E6E7F1ED11EADFF9031200E6082A21DCE4041DF803EFEFDE1402F7DBD710F9F9E104140EF00A03F505F5E7161014E81D09E003,
F4D3F5DEF5EE2E10120BE6FB0CE5E208E4F6091508F1273103F2EAF8FBEF1BF5F7F7FBFE04FDEE2121EBC8D300F3F6FCFE19FAEFECD52A1B100C14FA0314E4FAEA1213E7E41D06FCE6F700F8FFFFFC0EE009FC11D4D4EA08322C15004C2803E0042DEFD8,
0000000000000000000000000000000000000000000000000000000000000000000000000000000000000000D8EBFFDA142100060D220A06E9F4E2281915FD0EEEFE12030A070E131912EBF7FE10F4E812300001EC0F0FF1E5E606EB08E5D80D0AD8E0E1,
01FF12FAFF111C00281606DD1417F8FBF8F9F2FCDAF100F318F8FD25F7E1150CEDDC011D0210CBCBEFECE7E70F1EF406FA320F12F8051FDF2F0CF2FE0D1DF7092013FC1216FFF4F50C150E19FEF01C19EE0DEAF5E1DCE3E71A09F9F913260208F632FD15,
0BE8F1CFFF101EFBE10FF10C03F9FFFAFC2EEAD8E71520090C04070FF8221816F40C121407DFF9ED0F010E0D0B0F1DF405F5F905F3F3E62214081209101DECF818060B0E0222071AFADAFFE906C6FF1708E2050BFDE9ECFE14BEE81728EA1606181805F9,
0000000000000000000000000000000000000000000000000000000000000000000000000000000000000000271AF5E6CBF4FFE1EAF108ECFFFF04090319070B000200F5EF08EDFAEA0E191712EB0AF6E2DCDA02E0F8FCFC0319F5EAF3EA1DFFF5090CD2,
E918F501FEEE030110F405EC032700F6EDF51903FF15EFFE0AFA08ED16EBF8F11AECE2F7F4E0E6E902052B220B1FF7F3FBFEED04ECFA150B020D1C0609FEF310E1E60908051708150FFA0FFF0BF702FF12E5E6EF030CF008F109FDF10DF51211F40B1ADC,
0F02F3ECEC08E7041303070FF60D1C10EAF31E1819F808F6F822FEF2F80D17FD000AF1EF09FD03E7FF1B11EE0D0A12F1E918E8E4F4E4F4EAE814FAED0F1C09F3F4FE02F3F4F62406EAFAFD0B061EF8F807FEF61103EEE4FA1CEC0EFC2DF3FDEDF62B0DE9,
0000000000000000000000000000000000000000000000000000000000000000000000000000000000000000DA01F40B092827FEF111EEEAFEEB0BEBEAF701F1F7F81008FCF6FA0A1218F9F612090302F7ECEFF8FCE7DBE7E6FFF316ECF80603F103000E,
1DFBD1C4D8F1151712FBEDFF1414EDDE14F1E8CF0C0DEBFBF233F201F4F013FA04E00B0D26FD2C02F8E82C211718121AF5EAC2CEED02FE09010CF5EFF00BE4E9261606E3F80CDFFA15FAE1E70C230AE5E40A462915001B1910F3100D1CF90C02FF0DBEC4,
ED1E12F3F513DCE9EF07022C1706222A0421290AD1E90C1100091E1B17F3DFD906FD02D8F5E7F9E605F4F40315E8F0D4EEF8FFD4F512FB16F1F0230B011A0FF104010C052A1E00F02B0A01130A08F00108231503F71400FEE7F823E1ECFDE9D632DACEA7,
000000000000000000000000000000000000000000000000000000000000000000000000000000000000000011EA0F0FE4E900EAFBEBF7E5012A263402E7E80A000502E7EFFDFDEA1313F0EEF7F50BF925F00B100902F5FD0D092F2DF7FF101530092B35,
0109F4FD03FF07EDF7FDFF041109E915F1EB0B0E0FFBF51905F2FFE8F703F5FFE80AFA12EEF8F8EF10040B130F080514001508E9F4EDF6E805FA04FD130209F107F204F5FF09090A0904E9FDFFFAFE1109010BFAFB01FD0D10E8F5F1E80403FFECE5FC0F,
09EBEEF413F2FFE4EAECF109F8FEE5040410ED09F6EB0F17EDF805FFE9F6000814F9F604E6F8FDFA03ECFBFB100A11ED121712E6F308F011FEF6FB04F60F04F20DFA0AF112F703EEEDEEE6F4F8130AF705F3F20811FDFFFDE610070FF0EFF70FEB1AE9EB,
0000000000000000000000000000000000000000000000000000000000000000000000000000000000000000E602E515E9EDFBE5F115120AF3FD10F5F8EEF5F20AEC0BF00610060A0F000EF1E9ECFE17E5FFF0F5080513F00707071712050810F8EEE5FA,
3414A1F1E6EC2E05FE2D0D190206F6DA1408E6EEFE11FE01FF16F70FFA08D9FDF4E6F404F6ECF5FBEAC719F6FAFA1D1D333B35FB09E5171CE5E5FAF7F8E6E6DE132CE5E00FEFE8060EFBDFE20AFFC7DFE5180EE310D8E1FAF5F9EA04F31803133E4605F3,
E7DAFA09141506062E18FE1F0DD0FF081CFD151B0B1E1AF5082116D911F5ECE4E8F1CDB9F10400E9192A0518F506E6121215DCC1040BEB0CF103EEF61D03200EFD2B100EFC33EC100206D909F01911240EFFEC3911151611CA3328F6FAE2F8FE1D1CBBD7,
0000000000000000000000000000000000000000000000000000000000000000000000000000000000000000DA000A0EE90C0315EABFE602F427122312FCEAEF1AF1091AF0F918F4011601FFF600140D01FFF20C182AFE0FF10228EF2F3EFF041FE3112E,
F94E1809FE091A08E92628020813030D011C33FE06100810F603D8E4DCD4E011FBCFBD0132100A230EF5F4D8F8F1F1F709DFECE0F701F10901E7011209F1E52F02E10300FC0406F11B0FCA0910F4F5D500ED11E825F112FBF6E6DF08E0FFF0F001E4E7C6,
F4EDEDE6F309090C0415D9130B141514FAF5ED120FE8FBF50CFFE4E90108001F12EEDEE709F9FAFDFA01EFDB02DD08E91A06F4DF0A19F018F1EA25F112FFF8EF05FAEE20F81136F71A24180DFDFE1EEFFBF00F0A06F40104E20A2ADF2B162BFC0A4303E6,
000000000000000000000000000000000000000000000000000000000000000000000000000000000000000017EB0CEFF11DFFF7F8CF09E8E9E40B1D02000516EEFEEEEC11EFE8061905F1180E31071F031CF10AEE06F81004E80A1101E4EFE8050CFBEC,
15E9CEDE031213F8ED1020FADCF720FFF0260BE2001702FB0718E805E4FEFBF6D2EE12EF310CFD081FF030FAF23310E6F0FFE2FB0617EAEFFEED041002E6F6FDF00B09050F04E4EDEDE30AE700E80AF6FF171EDC03132502E52D06DF022F03E7EEFAF7DC,
ECE70A07D4D01AFF2C1A1C0CF8E80F1219F31203FFF31F060A110CEBFDF8D4E6DFD4E3EF15E4E40606F3FAFEEA03D0E5DAE2FCE2E4FBE509EA18200EDF1E1E13E7FEE7FAF9240FF0E90203F6F2FD0D09FC23111B0507EA11F52B07F5F80AD3040306D6EB,
000000000000000000000000000000000000000000000000000000000000000000000000000000000000000012F71E06F70DEBF3F61D17ECEE14131DF411FAEB1007F114F7F4E8FBE9FD02F4F002F703EBE6F4EAEDFBFB22EBFE2127070F1CED26F9060A,
420EFFDD152E0DDE162B0EE42725EFEFFF060BDB0F05FC0A1EFB02FAD2F3131EEADC011D0A1FF90CD8EFE4061AFADB05E6F128222103DEDB3348DFDEF220E81EFEF8FEFB21D4021808F1060DF4001DEEE9F70739E6E9090D0B1B0707FCF617EBF915EF0E,
13FEFDE5C010130B080300EFF3FA0DEC1F030AFDE5FC0B14F1F526FCF5FA09FFF016FD01F5D80415080CE1FB12F9F2F20409F015E208E60BFC160E06180006F61925050D1B07F5E6F200F0E004F3F3210AEC0506CDD9E9FC32E3EBFF3B2227FC290DDFE3,
00000000000000000000000000000000000000000000000000000000000000000000000000000000000000000509DDEBCFF918F715F51916DD18272601FD020413EB1A15040B08F0EC0FE905D100F9F4FB110F010AEAF72101FCF5F3D60209F2F3060A02,
EFF3E9F714D7F2E301F02D0D01F70C181618FE0EE2F9F0190203F1D9F215E7FAF826EB00F2EC103411F4EAD601101FF3060E0DF2FB080BE0031620F8ED05FC00E3E5FE23F8151BEE08FEE020EEE807E80512E9090C21FA04FEEFE3F811EE18D81A1CF4C1,
F4F7F3F40D0E230EE9EA02FCE40AD302090C17FFE9F20200090AE3BC0E0F22DF1406F5EE0A171CF918F5DEEEE5F2F30205161AF409E1201109130021FE050C0DFA1AFAEBEB0A11E4171019401220F91CE50BFDFBE80F04E91A15E9DA451428E80B0C1FE5,
0000000000000000000000000000000000000000000000000000000000000000000000000000000000000000EFD10921221F170D060C17FDFFE1DBE0F5F2100F1312EF0BFB0C18EA15FE170CF51C060AF0122507EB12F4D61507FD1115FAEF2BE4D3C9FE,
F02416031216FEF5FDEE03EDF0EEF3FD05FF1706E8FC0BF6F4EBE9F4F90DFBFDF3161405271EEADF0FD4CBD713E6F8FE1A1BF20B1308FD020800EB1C15F1FE0703011211F01122F3F81CEF13ED07E0FEDE0CEC020EF8FF06FD18FB16FF1AF8EEFDF8FC05,
19E6EFEDF0E1DFF01910F1E20AF5FB0C1AEE0E160E0BF81B0DF91D2119F20801F00722F2F309DEE80AFBFC0B14E8F00A1AFBE710E6FEE20AE5EEF01500121121F8EA08ED0A111B0EF0EF00FC09EE0414E9030310F50BEC15E2060F18092808120B24EC14,
0000000000000000000000000000000000000000000000000000000000000000000000000000000000000000140102FA0713F5E4F0F700EDEE0A01FB14FC17F309FF0A0A10F0F1FDE60DFA06EDE90EFEF2FAED17F107EAF2F6FFF114F60212F70B160308,
09E6F7D7042118FD0B0D1A03E4D70C23D7D7F203EA230FFA21F4E6151C1DF0CDE70C12F7E70B1A21DD2E311D0A0A27FF080A001F1918FB0A221D03F9D5F40CEEF8F0D9F3011311EDFB16F709EC1307150207EFF819192E03E41309FCEC1CD5EAE400302C,
452C260FF6103706F6F3363E0D1B111308222900FBD0E6E9EFE91EEBEC20FCF6020504FEE504FCEDF0DA1A0802171A0DFF020006FE20DDC2F6FED5E4DDF1FDE9F90E1EFD1CE8EAF8E0E70BFDD8F600272812DBE9141B28022FF0E4A0E5F5F6DEC4FE0218,
00000000000000000000000000000000000000000000000000000000000000000000000000000000000000001734FD14DAE50B160CE3DB17211205F710070617EE04FB140C0604ED18EFF6011710F00B15E3F7F8E511F7081E2B0526D3140F2FF6091502,
16131224101306FA0CF51FF1EBE42D26EA0423FCEFFEF216E3F9001F0717BFCC1547C8D505E31B3EFDD6E307C7DC1EE1000405D50C05B9D41406EDF8CA0A1B0ED30023F514EAF4FAE71D0EE4F2F10F15020904D100041727F2F01114DCF104F2DA023BDA,
0AE5E62D04F3F6071BFA0C3FF9E0BE1EF9D5D61FF2C5F311EBE6FCEE0B2F1502060A3715ED181B17140BFC0F3424F50E032021EFDD17F4DD0CF31CFAFAE912E311FEF0D8E9EE00FB06000A13E7F910F4160715DE2C2518D906FF01171018CCECCB232BE7,
00000000000000000000000000000000000000000000000000000000000000000000000000000000000000003025152CE00C0726D6F82D0421F9CFBFFEFA08FC0BFAF4FD15F7F2EA06FBED152705EF090DFD1CEAE30B13CE0DEDFDF5E9FD2B1EE109F805,
2F0FEFDEFC0E0CFDE80A1E1210EB0C0416FBF801E50108171E03F4E3F214ECF5D3F2231A1B150C0F0202F8F5281AEBFFFA1A0103100FF1E615EFF20700F3E3EA00140B04F2E5EBF7F5FA05FA0FFBF0C90A3009EA0DFFF210F8EFE4030A2E111C050F0BEB,
FC0AD2D9DCF3D5F40F170E0319FE100407FDF2ECD4E6FD090CF7FCFF0F0FFF0CF9E8F1F8ECEFECFD0F001F0BF0130CFEFD09D9F7120BF703090D10EFE6F4080BF2F5FD2400F60A0902EB0120F9210BFE0238251CF11CF91EDFF9F60BD1FE03F6F807EDF9,
0000000000000000000000000000000000000000000000000000000000000000000000000000000000000000EBE3100AEEF4FCEF353712181F01140D0BF8F203F002F2FC07FA0E18FCFEEDE8E809E31509F1FB1CF304F70809EC0E1909132305061B02F6,
053B2340EEF3EA1C170E0413F0261316183F231F0BEDF705EB1D21F9D7D2021325F4D9CEFA410EC42A1E14F3C2010F350CDFCCE30A092207EED93600F0E908F604E0EC18FB32151DF9DCF417EAF61B14FDC9B7F23DEBFCFEF209FF17EFDCF71507EBD0E2,
E00835020CD20E3AD3F5E5E7E92627FCFCE0F6E802F3F10A0F0C05260EFFF41A21090709FB05150AF0111809DA00E9E2F70125EFE9E3062707FFC8FBEE2CE0EA07F3FB0403FE19210F14F2F4F10905E3D3E4EDE4230DF6E232FF141BF6F0E73E2A0AFE17,
00000000000000000000000000000000000000000000000000000000000000000000000000000000000000002011FE18FF12F6FDD7221924F7BDC7EFFEFBFDF806090905EFE60DEB17040CFE0EF40F1E15041319F3050BE4FCEED7D5C2CEF4EE070D07FD,
06CCE3BCF60A20111713EDF812F003F9FCDC06EE0622FEE60C1009DDE51204FEF9032F3621C7DE0A1F1E241C2A0411E9CEF60500EE1ED8D1D4F8E2E4F3DC2B25160E0F24171114FEE3DF07F7F6E91BFF0C3D2D090EE30917240E1F01191811F2EFFCD70A,
DB17EC04E3D511FF04EBDB081CFEED19FFF3F502EA0209F403041A09F5F50A0BD9DF090A1FFDE70324F9F8E0F1200C03AAE410023002FAE51006F5F50104020E1129ECFAE7DDD7DBFF2405F2FA1806E1FF0B1DE6FCF1D31701030D2DE436F4EEF810B0C1,
0000000000000000000000000000000000000000000000000000000000000000000000000000000000000000060FDDF6361C00C4342002DADD04FE1B0D130E09F110190A0C1919F61406F000F6DD00D6D213F9EBF30A2704FFFBED1E09FAE90A141926CD,
E3D2CCEE0C15E60B03150EEDF1FAED05DAF6001024F2FB0C18FA14F30206DB1DF320252611EE00DEF1F1F406F1F710012034FAF8FCF00310F005E0F2D3FD0E06EFEAEDF21CFDF4081928E8E4F5EFF61406F4031515F804FA10EB1908011CDFE31FF5DB0A,
03F704F603202B1C240EF9ECFC0EEA17080E15F505FD1AFD0406F107FEFC0A1CEDFA0CEFE7F70CEFE4ED14FA16F0E902ECF20B02EAF9E2EF0BFFE6DF050E09EE14FCE4F0E4EDF4EDFC1B28FE0C130D0B1F01F913243229FCEA04FAE7FB05FAFBE8EAE1ED,
0000000000000000000000000000000000000000000000000000000000000000000000000000000000000000E51705F2F61B0804F8E30313030325F91A1102EC0B0BEAF8100AF0E80E18160B0717240302030EF70C2A160CF1182A1AFB1209F21A141919,
D90F1A221C07FDED0300E802EBFB1E14F9142D2CF21BFA16E9EE14211CFCE1F90DF2DEEDFFE6F226EDF8F9F0D9F817DE16191C02171010E82AF50E12E70B1313FAD3F613E902F81A080E0C21F60F0010F9D9D5BD0C122810DF23FDEDF11623D608311B27,
03FADCF51E0BECE1FFF6260B0B0107FBEDF207F5FF07F5EF0FEA121A0E0E00E510072306FD0A0E111EFBED2014E61DFA04F2F41FE8F3F8EF1B11E4FC0205EDE8FDECEA06F9E0E913F1F50B02FC192011010806D92112F9061DEF0C0513ECDAEEDFE7202E,
00000000000000000000000000000000000000000000000000000000000000000000000000000000000000001A18141CDC00F71EE3191F08F2E6E5DCFEEFF7010613001511E7F000FFFA03F50803010DFB0424DDF11414E10FFAF0DB091D0E07FC03F0FC,
161706FD0BFAF4F00612F70C001C09FBF80CF4CED6F5110BFE11FC2AFB070E0608DFC4D2E107F7EDEBD508FFDEF4F927F20AE5C400FA0B0114FF1B041F1A12EB0F0FD6DAE7F82C021328D30D1B01FF041510E7E3DFE4DD0F06FFF004D9FE1934F90416CC,
0E01FF18E0EA384EDBFA180BF8EDF0041D120017FAFEF73BF506E8FDEAE1F4080E0202F71312F0DDDB2205ED1501F710FD250329110EF62B063C120209FA1103FD0D010DF3212605DCE5F540FDD3E714FAD6EB130316F8E44109EFB91416FFE2122F18F7,
000000000000000000000000000000000000000000000000000000000000000000000000000000000000000003330202D2DB291FDDCEF22003E9FFFE17F7F705F9E9F2E607ECFC02F3EA1AEFFE141937F5F90A1FFD08ECDDFEF90CFBDFD92A02CED5160C,
C9152110F107F1E8EBFA090BE6EEF107D3FC1616EE1207E7F7F025230A04DEE30518F10A2B2F0017FF17060DED092DFBF0E2EED20CFDF00101DE0700EFEF16D5F40C1BE815080313FBFC170907192A00FB010E0A1B131100FD001AFDEE03E1FEF508D503,
E0EA170E1D1DF80908360F120311F22CF2FF16EA2301D9D7EAF7E9FAFDDAEEFE20F8EFDB03160C16F20F0A04D7D507FCE60B280414E800F1F8E8111B00F71F08E5FFFAE1E30D1D10FAFC15030D01FDF2F4041CE8292906F5CA00160AE5F5130FB306E8E6,
0000000000000000000000000000000000000000000000000000000000000000000000000000000000000000FB13F1F8F10515E413ED1A0815F2F7060E0FF4EA08FDEB1702FD12F118040BEFE7EC07EFFDF91C1225280D0AFE06170C1B15FF11FD39170B,
250DF0D0F809FE1E1ADB0E1FE1E41020F4DD0DF6F90AE9E4E3330809141CF3FD072932010604F102FA000116F010F72EB2E41219F602E5D409FB1F11E7EFFA040C0511171228F6EB02FF140AFAF60C28000725F527FF070F260A00030BF1EAFFD6D91411,
2D342515F9E5E31400EDFDF9FDF3FFF0EBFB081CDBF6070B17F101F7F5EF10E105DE1B06020701191024ECE2080C2D000ECC061B1EFCEDACF5F200160104FA0BEE2BD5FCFEFFF6EDF9FAFEF4EF190DDFFF383ADCE8FC0604EE132A0EF8FD1A090DD90615,
00000000000000000000000000000000000000000000000000000000000000000000000000000000000000002ADEA8FDF8F4DE00304BF921F1F1FBED08FCFE02FF09FAF70E14EAECF5E6191103F407E205111909F9E7EBEB130A000518120727FC0E0BC6,
FDF9EBF5051DF40219140612130C10F40DEB03F6F50EF6EC18FE05F01402ED0CE9F7E7FDEEF81AFC0EE6F9FCF206E7FBF516F4F6EC19F5020AF62809F0EC100CE8E611FAF0FC1109F8F91E23E50FFC01EFEE1910FA04ED16040700ED02E706F1F6070C06,
0DFE0F08FCEEE81B190F11EDEB080D021501EEF0ECE808191BF30E08F10C1014EAE9FE20EF13ED08051DE8E6FC0B0CF605F80BEE0CE4EF10FF09F70AFDF301FC1016FAEAF61DF5FF06E900EDF81D1318E7F5F9151CFA03160E0C020503F9F906F3F9EAF5,
0000000000000000000000000000000000000000000000000000000000000000000000000000000000000000E30FFDEDF5FB11F2F704FF021B0EF6F2061004ECE611F9ED0508FDF60EFA0D0BE711EEFEED19FE02F7FD03F81B18160307ECDDE105E9F3E9,
DAFFE21FFCF3E1E8F801EE02CA00FFE8EBDCE206D6031204F72202E3120D12DF0902F8E30BF0ED1DED053E11EAF73B04DC17EDF20F06001AEB0AF30AD9FBFBE3D2E809BF1E0E29F3ED1D01E41E2422F2180302DF15D92EFEEF0E2506BFF91409EF08F5F2,
18231E0117112DEA07FB150F07E3161E02282C00F5E4EF0A0A0408F01406FBF80EE816FDEF22FAFD13162B180A1A10FA1D1800F6ECF0F4CC06F3E7F9000B00F70319FD02FEEDFE13EB180D1BCEEBFF021D031C0329030E14ECD8E8E8FEEDF7F6D302F827,
000000000000000000000000000000000000000000000000000000000000000000000000000000000000000020281B2CD0051B07DEDBF6FB0C041AF2F30B080A04ED101001FDE6070818FDF2151FF304040F0DF603FBFB0801F11D11FD2CE8000DFBFF2A,
DA09EBE7DFBFE8C6F7D8FB0DD2F20D1A06E211F300F3DC160722CD0200FA09F306EB0707B0AEF502F2F9EFF2FEFA1BEEEDEDFE121E0616E1FAE9051311E11E0B02F9080F030A03FEF6FDE319FD0F021C0A01FAEEDCDF00D20CF9010425F92C0F02ECFDFA,
0B023B23F7111C08E6E4A9E5FB16E5C4E208174AEC180EE92BE9A8B3F1ECEF17FBF30DEFF9F61A151E31ACCF0FE9220710F0282904002C16E4063DF9E6E6142BFFFFF70E07EBFAF2D90516142A2B04EBE50E42FE061018F0FF492BD90217311FDFEDFCE9,
000000000000000000000000000000000000000000000000000000000000000000000000000000000000000093A1CD052112393B091B370AEDF2FAFB00E9F3F113170BF00F180B16EC0512F90B183937110C451CF9F6F6E2FDD7D4DAFE8197F5FCFEB5BD,
20E5FE171403EFE2130AE5053106FDE4171606EFE708F10418F2FB2BEE080EF9F0F9FD19F6FD00FAE90510FC20010EEE35F6EE07EDD7E5F80912F2E8052DF20D0BF8F6DC0CF0FA1324FBF5092126FFE6FAEDFAEFE714F907F41D030016FB121D14EC0EE5,
F004E1D6091A0EF911E6F3F8E31CFD08FD28F603111311E40B00F8FB1A00EAFF04F0EEED151410F4F9EFE5FEF511F8011BDC0FF408E5FB1C15E9FFFB1CFE061D0AF1131AF9F20E11F4E70EEF05EDEBFF04FE0D28D7F9051703041A1EE8EA0A1D09D2F4FD,
0000000000000000000000000000000000000000000000000000000000000000000000000000000000000000F6EBE3F907F7DD211FEF0AFFFDFA0A050BF3EA001A0FEAFFEAFCEDF1FAF40F0201F0EF061A0D05031F02222003EAF1EBF0F91F0505F31A1A,
EF0ADE011613F0EC0D030CFC05F70209F501F513F0F809EA10EEF9EEF80008170FF4F00B12F7F6F50CEE14E30BF31EE8F8FD1EEAEF150CFC09E61418090A03F8FBFE0915FBF7FBE2F307FD06EFE4E9E2E908180CF6F0EFFEF2FDF714FEEE16E9191402FE,
E1E4180EE80613F1190315F3F1FD1308FA0BEB0DF4EB08EE1201081405EB0E08FBEA04EBEEE712F7FB1014F2160D17FEE5FC15FDF3190BECE5060F13F808EDFC16F9110AF5F1F612E8FD00E6F5F2F402EBFDE9F7F00603F10617EDEB0EF8EDF90603F404,
0000000000000000000000000000000000000000000000000000000000000000000000000000000000000000F2FBF4F501FAFBE8000DF2FBF31417F0F1FFFEEF14EB14ED0EF804EC04E70CFE16F41CF50E02F7EB1101E8E7F6E6FEEA0CE8EEE7FBE6E5EE,
E3F715F8FEFE20190E1DF70305F602E9190B0F2914FCF5CBF6062FE6FAF301250B0D312E0BEDF6DD481B061511F3E80FE8D5F801DCFBF516B6DADD12F8E8161515F30911E8EA071ED4E808EE09E2180DFB020A29050FE9DE3929262F1113DC1609D4D801,
D215F6E2D6EA120D27F9040DF2CA040ACED103110DF6F8FDFA1B3727FFECF4EDFFE10119F0F4DF041E1B1A08C9E1EACFC10208F62D10112CDB09EC12EF3520FE0A25D5DDEC16E6E7370902E8111D1AE8FEF6DA0F09F8D60300F1370EF010E0F90BFDD9DE,
0000000000000000000000000000000000000000000000000000000000000000000000000000000000000000D7051F1B390707CD040F070D15F6FD20FC0CE60AFCEA0A190005E8010519180F03E10BE7041204FAF9E80618D9F512123D301F03F705FBDD,
190909F10DE8040C08F9E10B0700E8F3FE05F5F8F50D0F18F5200AE907F5F3EBFCF7FFFD03F8DFE70E051718EF0B05F70EF4F712FAE602F00509FAEC0A1AFC05E612F8DB1214EB02F81105FCEFF913DC0011030BFC15030EF6091318E8F5001AF8E91FE0,
02E8EB0BEE170DE5ECF6E6E712F3EFE4090113FA11F115F40DEC11E80D0EF9E7FA0401F804EFF2F30D06081118EDE81FF5FCE902F900F6E00AFF04E9F202E5FC011C0E0417F1091816FAF0EEFC0A14EB1A03FA1AED0200F00100040116D5142902000AFD,
0000000000000000000000000000000000000000000000000000000000000000000000000000000000000000F7EEE20220FC16010B13E6F4FBEC0907130DEEF514FE08150D0E0B1AFD011913FE081E1E01F006E7EBF70CFBFA0105EAF72000F7DFF805F1,
0B2DFEF4FC061319FC091DF4E50FF804030A18FFE507040FE210FB0C080C02100DF90AFE0FF70A15EFECE61BF6F105F615DDEE0D03EBE701E7EC0D17061CEFF3EA20F9F40EF3F909F407FFE5FD1707E11AF2FAE8F91D090FFDF80D18F7F710FE02F8E7FD,
F2F1051B1A06E113F2ECF120E4EA040F0F0B13F1FBE709F6FBFBDE0806F9FEE3070C0B070616F4E5EDFDEFED0EF416EC05160BE4FE2109ED110C00EC01F41AFF11FA1BF0F4FEEF0CF0F2E4E10CF800040FED0FFDEDF2101200170F0019F1DDF41115F6FD,
000000000000000000000000000000000000000000000000000000000000000000000000000000000000000009FA0BF7EE14EEEEF01502F0070EF3EE12EC0AF9E718F9170D0519F50D0E0A0D0514ED100F15F6EFFCF1ECE3F1EC1D12E218060B03EA170C,
05F00701E207F1FBFB0FE3FCE7EAEC18E6E307E2EF00F80EEB1719090F080704F713F10B030EE8000C0EE81C00FD070B06FFF6100EE3E7F1F6F7DE0EEFF3E9F5F110E4EB10F911EE18F7F9EE12E6FE0F050DF907F6E613FD1C17EA04F5030907EB0A1900,
1F1DE8EFF8ED0100F4F5F6F0EC15150C0906F3FA03061809EBE702EAE7F6EFFE0E141911FE06F40FF9E7010816150E110F140005F30FFCEC10F6FCFEFBFCF3F2F2FD10FFFEE5E9E60816F41A03FA02FF04F5E8E8E4110CEA04E014F6E8E6F805F9EA030C,
00000000000000000000000000000000000000000000000000000000000000000000000000000000000000001012EFF12505FF05010907EA160DF1FB14FB17E80817FCF90812E613F7E9E7E9F5F614F9030BF8FDE8F8FEDF040C04F705EAF1EB000CFBE6,
FADE1BE735190B0A10EFFA1403FB1211DECEF807FF0BF118000C0AF00F12FADEFC20FCC8152CE30CD1FCFBD3F5EA04FFE8E2312611F2020228F8FFFA1DD81B000A02F60EFC210F27EB0310FEDDDA07152D12F6BD161513D00116FDE4F7072FDECDF1594B,
FF0E07E801EFFA1800170111F404E7F7EAE3FAE706FBEDF90C1B13EDF10F420EE3D12C2604EB0C15EA101415EAFC0D1716DFFE01140EE5BDF3110DE8E4081A1913EEEB23D3DDE3FD040AF00EDF00E4E5E8F8FC00DD04E2F324CA08EC1CF9FB2908020D4B,
0000000000000000000000000000000000000000000000000000000000000000000000000000000000000000220F03220F0BF2FDDE0D180FF90B0AD80B02010DF308FE04F51711F915F8F219DFEC1E07FEF72017F5E4E5D61B05D8EEEB320F31C40FFC14,
02201FF2000300E5130AFC09EAE4100DE0FD1D0D0106F128F4F1E8080706E4FDE9CDF71B02000820FF07E6E1FDEDEBDB090801D3F202EDE30E1D1FE6E90DEA0001E7F21409FC0D1FF9F40505010B0EF1DBF50F19F6FD0E072203D0F7EBD80AEAECFDE603,
FAE9F702F3DD00F7001717141B1BF20B07170FEE070DE620FC16F30E1C1C17F8EE150700ECF3011A060DE90E2403F21416FBF4E3FC040C180B0E02FEF7FD08FCE8070013141825F3F6FFF30FF6EDF11E16EAFD13030CED04F01CEBEEFA3AE5F4D82D0B03,
0000000000000000000000000000000000000000000000000000000000000000000000000000000000000000F91218F1E6EDF209F2FCE8FE0AEBFAFFFEFC0510EC15FA00EDFFFC1904130D07F513F4F20B00D60A05FD1DF7FAEA0A11FF0CF00A38FF1428,
F7E0C4E1FD0B090EF911E20D1007EFEAFA00FFD504240214EEF4F3F6F2EE2F02F0F3080AEBDFADD9E5F7EF14030528001A2C2E4500191CE1010FE50BF8F7F40DF3F3FDF900071DEF1605110BD8FFE1EFF2E800021110D3D604DEF0F00204FD0E0D290728,
F9FFF9F223302B16FF02CDCCEE07EFE2020111FF111F20FC0C22EFD308F11F09E50108EA0005DBE7F10CDACE19F2131B071FFCF9DA0CF809F1E903FA0EEE0B070C1109050812D2F50BFB09E5F0EFEEEC06EB120F110E0C03F308E40A19CC110124E1CF04,
0000000000000000000000000000000000000000000000000000000000000000000000000000000000000000F2CBC3CE1A01150C080C0CF707132B2FE80FFD19F60116FB100EF8ED170FF4ED0B0D290EEC0FF813FB0D143511330A190DFBF1FF1D1EE4F4,
18FC18F307190E1A27190CF81C0A05F31B1810FAF4E8F1ECFC0922FCDEE20F151404FF1B132FFB9C03F61A1FE1E1E956F4D4D1F7F40C0911F9FDF500F317060406E9DF0605271A11F9F8F7E7EBF1F912F1F9F4302A09E5F316211C2CF6160B3CFFE4DEF8,
FA10F9D3E60926310CF4FB0314ED14E6E7F81FF1EB110601E5131F0FE8F6EB24FA02040AF0DC0C06F1012AF0F801F1F80A0E01EAEBFAFE1407EDF4E715081515091EF8DC061506071AFFF3EAFADCE3FD00F8D8F710DEE91723D7E5F8FBFDEBDD30FEC2CF,
00000000000000000000000000000000000000000000000000000000000000000000000000000000000000002A3518EF10F4160104DCF5FCF6DB203E0AF8F0EF0CFBE9F00D05EFF80209F0F414F501EBFBFBF0F807F50D3BF41E3007DD0D2A10F3F91CC8,
DF3317F1EAF30CE6140504ED180404F8E2FBF800FBF8E7020D15FA0BECE10FF9DDEEF70C071CE4FC10242A181F29180DDC08EBF10419F40424F1F824FB0EFBE4D8EDFFEB100A1FFB0E01E40BF5E0FDFCDCEA0CE5FCF6E8E2040C0B060FEEFAF902E6E9E3,
361108F5F10116FB0400F4E6FEEDFA0A282400F6E6E8F4FD00E808FAF1F91DF1F205ECECE2E3D60CF9F40BF90AF116EF111EE808C8E5F205F716F00CF2F0FF11DB0F1CF0E813010EF81A1615FF1A07F9EF0D1CFDF7FA0C11F30321E20CF6130CF311F8E1,
0000000000000000000000000000000000000000000000000000000000000000000000000000000000000000F006F30E1313FD1AFE190CFFEA100EFF03EB16F3E8E8F80AED0E06060B10EA071B10F2F7FFF41B1A0AE9F1F9F11A010509050BE9FCEEE6D8,
FD091722FA020EFB0FF10920EEFF040F15F8F0201A0904DDF2EF1DEAE70BFDEADD020A060D0B0DF7F4FEFA0503ECFF09CFF8F8EDEF02FB04F70D1FEFEDE6202BE9F9E7F7EEF3F7E7F7F8FBF6FCF4F40F110F16FA1DF3F6EC1BFAF2E2EB12EBE9E4ED1018,
F3FCF9F2160810FB0CFCF4F007EC01FF1110DFFB140BEF1AE7FAF3F0EE08F50AFD080DFDFFEEDC030E0E0A12FA060EEFFAF90DF0050104F7F515F8E90FF72601ED080F13F4F4020C1D14FCE10FF3E7ECD9E30B08DF00E1FFF1FF25F10F19150DF7F31106,
0000000000000000000000000000000000000000000000000000000000000000000000000000000000000000FB0604E72709E801D3EBEFFADCFBE1F314FAEFED0E0FF3F8FF191507F4ED12120DFB0CEA03F3FB050D00F9E7EDEBEE03ECEFF709F214E7E0,
09FAF3040A0EF30B0F17F7FE10FBF6F51701E1FBDAFC09E4F2ED1BECCB020606DFDDEFFD170AF2DCFB1C30F3DFF71827D9D5CA30E104170815F3FC1434F412F90FF0E1DFE71919EFEBFD0012EFFFFEEBF3E4F03919E9F8E1F5F41F17E2EB0924F8BEF12B,
E8EB281DF9043514EAFA1AFDDE032FDEFE1E1418F4F1FCF8ED200316DAF20314F9DDE6EB210DEFFDF51DF90CE10E0A0E1C06F7E90FE90DF7FDF0E3E4E8FFEFEC1AF8EC0608FBF7E71A0D20FEE2FED6E7D7E3F204FCD20C0EF80DE40D2408020C19F3EAE8,
00000000000000000000000000000000000000000000000000000000000000000000000000000000000000000630210A17FFEF06F20EEEE1D6FC271DF217E819F510ECF51715FAEA11EDFAEB03160811E4F4000510EFD918FE32FC2303F4070EEAE219F2,
2FF5FAFB3319FD030604022406F2041218152114F0DEEDFFFAEEDD0A0DDDCCDE02181117FB0B0528FDEDC2ED0137FECB0D0F25E7150D00D11B40F804FC10FF0906FCDFF318060D150610EA0AEEC2EBE3E71D2706EEE4E1E6ED0FE8DC2C2223E703101D0E,
06E8E2E8E5D5F5E10C131F1B192E0AF82018FFFBE60DDD0BF6F4FF1A091EEFFF0BE6F60907F8E5E831F806FB2D0AEC13EBD5ECFFEEF6EDFE040E1EFD02E2FE2FEB0D0C14EE0BDF16ECDFF4FEE4F5141DF901E1FDFBEC0F19300C130821041B1B03EA1B14,
00000000000000000000000000000000000000000000000000000000000000000000000000000000000000002A25FB00DCE8F50EF41A110C052305F00B1414F0E9F817FD07F1100F150CEA090C0304EBDFEEF121060310DFF61BF619FBEB1CEFF60CFC10,
05EEFFF2FCDAFAFBFFE90A1C12061C191B0D07040309F10DF3F5FE08E3FEFE10E61320EDDD16E1FE0CF5CFD6FE0F0215E4FF0F04F926F213EB04F1FF0FF908F31D0FEBE9FF18E5EFE1E5E400FBE007160D0BF9DCE9E7FEFA21D3D3DE1201FA1D0DF0E6FA,
DEE3F7F1E6D91935EBF0D8E5FA03E1EBF013F80515122B25190F05F7F7F7F2FAF5F1EEFF09E60813FB1205EEEAEE021FF6102C21170BF01618E824FE1ED81D05EEF91F020A1602100B1421E0F60E1801F5F119F508F113FEECFF2F1408EE393E1EFD1232,
00000000000000000000000000000000000000000000000000000000000000000000000000000000000000000AD103F9110CFC0A321AF7FC0301EBD803FFEBF60EE7F0ECFF08FBE70CECEF08EA1A100AEDF01D29FAEB02EBF9F9EBEA12E6D7FE16FA10F9,
04D71A21E9F8E6F70808F6F50107FFF605E1050E1AF3220F070A1301E903FA1FE6EE0DF718F4F20CFB17FFE210FDDA0A1E00F410051B1FEFF8FB05FE1EF9041F1622E6E615E8181208F4F42CECF7E519FDEC15FEF5E3FBF7F4FEE2EF0EFEF10CF6150113,
E5FD1F13DFDA062BF50DDEF2EF06FAE4101111050A16FA1F00F2FAFA050C0D08F9EFF3FE04FF01FEF9121214DF0B22FF06F410F9FCE8F701F8FAFE12FC0513EDF6F908160BDFEE081B0A031018E8E200E0D8080100EA1FF6F9F0DDF7E9082B20FD011514,
0000000000000000000000000000000000000000000000000000000000000000000000000000000000000000F0E4090115F4FAE8E2ECD4FCF402120D10F3FEFAE70415F4FEEA1414171516F5F31B07110CEFF119FB03140C0FF1040F040CE8E8FB12E709,
FCD93039E4F1171AFE49FCF8FE0BF40BFF07E7B6CA1219F5B9051ECCE72DFDFCDBE4F607EFFC1804C4072ADCAFE4A01F090518C6E4F8F4413CF912031EE41E1E0BE901210DF3ED274139FAF7F7182E04F9FC221427EBF8031CECFAF2F1DDE029272FE1FD,
1EF222AE0CDFB3B837BFF516FEDF1AEA141E19AB301BF71CDDDA1834FF0603042E28480138F00C4C1700C106CCF4E938361418F9EFF1F617D019E90ADDE90AE617C61956E2100225C8DE06F13DF500B90B0748270A1700061611E9F726350A0CFBF11B0E,
C4F31AD6EF3DCAFB19230DE52882FE040340DD35D7562DFDEAFC062F4EE02AE5D9CF20F3AC19C7CF1C14FAF701DCED0503E10AC4D3FDFA02E33811F72B1FEC4F1704EFDE0C0339F901FBED061F04F0E3F2D1CBDE030EF8F63FB0EFF05124EF3541EE01B0,
03E7ACF21EFF25F0BFFBF30D1829FDE6AE3C062038D72A160950D51B0A0AE5A6F5CCF907CA22D7D7DC17FA19281D55072FEC4F1439BFFE0BC7B7F0ED27D4EDB1F3080FE9E133282825DCF82D260301EE0EF8A90F12F8EF16134AEDF7DDDAF6DA02DF06FB,
0623F6E9D8FAD7CF16D30DF710F5E32D5DD01B1EF50C2CA9DC4A24F897F12A180E26A516FA28EF3E251126FB45F708F4C224CC33DD3705F8EA370B14C8034FE515D8FBD5ED37D399E5C604E412FF171EA30939390FEDFCED24CBF6FEFB2204D7FB01FD08,
DAE5FD0B09353E2517B8FCE31D3E0B33B8100407EBDCCF1225052A9CF9240B1E392F2F143F001524FC0BECEE26A711EF211E020935E116DFFBC6F108F41FE5F00D29021C061BB9321801FEEADC09C0FE471CAAF9F710FA01150F13FE06F20BFF12C9EE29,
2435C149F2F93FB2F1EFF7240708FB09FB18ECFE0A39D0D2E135E6B9FBDFED1FD5FCD9112712FD14230C3B0108F69807E7FEF5B413EDF5ED0838ECE8F51CE71AFD230A0D0AA5CD111250F3F3CE0DF5C647E80FCCFC10E9FADFD603F6FA1813E0E6090A1E,
FE4213F0D70AD148FFDBE20808CC0A3B3DD220E21D11FD10D7C3D9F91E04EA20C90619ECFFFE2BF3E8F8E3E80319212DFC2BCE10263013E5EEC217F90EC1EA3EE8DAF2F6B41727EBD3C4034C3915E33AF43023F2F1F809E9AE3704ED2836112CC20FF50D,
19D81AE619FB0517EEFFE9F2D705F40081E00417CEE01A0B46E3F6351514A72BF2B09F02E8D32BBF5BEEEF24143F3AB40B00112AF2D5FC20B21B14FD0A11D2002047F1E921FAF5EE244D00F2AE0705151B1B1E0D05EEFDEADAE1E9FCAB0C3CC8221D1EF1,
1031162125C2D937F034211204210FE866D70E3AE9A010E742C01B36BBFF2404361FF401FDF2D31ACAFC3C141DEA3CA20FDF162BDA28EE0339330C00B912F6E0F6FDF3FE1C29FA10DBD9F4CFE1061635B8D72CBC04F8F4F2F830FE0304A104BDCF24BDDE;
