memory_initialization_radix=16;
memory_initialization_vector=
403C12FC00,
5223DBC7E6,
5019D8BAF3,
3112E2D309,
290AECD90D,
E1F90CE4E8,
0D06E2F01A,
FFD2B23D4A,
E6ED256333,
EC143517E7,
0907060CEB,
1922023AF3,
0D17F3FF17,
FD1E120007,
010AFAF300,
DAF1FAEA28,
00E9091C24,
22CCEB11F7,
0601D92A13,
0A0EE810F5,
0EDEFD3101,
F7E20B51FA,
0604486BFD,
E8024434F7,
E61417E1E4,
FB0B001011,
17200F05FC,
FC21083541,
D919EC3057,
EADAEAFF2C,
01FCC50B02,
C7E9E6D808,
FAF1CFC2ED,
1A0E060906,
26F5FF23FE,
0513140E1F,
F2F91A1327,
D0C9F2D8DD,
E3A0A5BDDE,
220EC9C5F7,
0FEBED0DED,
3B01EB2AEE,
3FF3FB25E4,
F5F8DE1311,
E6DEE72DF5,
292CE8E9E3,
06F1F5E1E5,
0D00D103F6,
E5EFFE19F1,
02050FF3EF,
05110DEAFA,
E0F41A0BD6,
D4D53119FB,
F2D4170DE6,
EACDDD13D8,
E21B14010E,
09E022F8F6,
FCCCFB0C1B,
FADDE1F610,
E306F1D7F9,
0F2032151E,
F82D1D22FB,
F517381209,
F72022FD11,
E8292F09F6,
0F0B12E5D1,
354020E9E0,
193E1EFCE3,
0A6124F2FB,
D63E09EBF3,
0DFC01D537,
0512E8E226,
F5F7EBD206,
0EFBE4DA14,
FBE50ADEF7,
07F30AF2F3,
FBF4F5F20A,
F5021317F6,
F5ED150308,
0D0F04F6EA,
26D1FAF903,
1CD9F6F0DD,
2EE33002F1,
07123110EC,
EA14260007,
